{
  "version": "1.0",
  "truncation": null,
  "padding": null,
  "added_tokens": [
    {
      "id": 0,
      "content": "[PAD]",
      "single_word": false,
      "lstrip": false,
      "rstrip": false,
      "normalized": false,
      "special": true
    },
    {
      "id": 1,
      "content": "[CLS]",
      "single_word": false,
      "lstrip": false,
      "rstrip": false,
      "normalized": false,
      "special": true
    },
    {
      "id": 2,
      "content": "[SEP]",
      "single_word": false,
      "lstrip": false,
      "rstrip": false,
      "normalized": false,
      "special": true
    },
    {
      "id": 3,
      "content": "[UNK]",
      "single_word": false,
      "lstrip": false,
      "rstrip": false,
      "normalized": false,
      "special": true
    }
  ],
  "normalizer": null,
  "pre_tokenizer": {
    "type": "Whitespace"
  },
  "post_processor": {
    "type": "TemplateProcessing",
    "single": [
      {
        "SpecialToken": {
          "id": "[CLS]",
          "type_id": 0
        }
      },
      {
        "Sequence": {
          "id": "A",
          "type_id": 0
        }
      },
      {
        "SpecialToken": {
          "id": "[SEP]",
          "type_id": 0
        }
      }
    ],
    "pair": [
      {
        "Sequence": {
          "id": "A",
          "type_id": 0
        }
      },
      {
        "Sequence": {
          "id": "B",
          "type_id": 1
        }
      }
    ],
    "special_tokens": {
      "[CLS]": {
        "id": "[CLS]",
        "ids": [
          1
        ],
        "tokens": [
          "[CLS]"
        ]
      },
      "[SEP]": {
        "id": "[SEP]",
        "ids": [
          2
        ],
        "tokens": [
          "[SEP]"
        ]
      }
    }
  },
  "decoder": null,
  "model": {
    "type": "BPE",
    "dropout": null,
    "unk_token": "[UNK]",
    "continuing_subword_prefix": null,
    "end_of_word_suffix": null,
    "fuse_unk": false,
    "byte_fallback": false,
    "ignore_merges": false,
    "vocab": {
      "[PAD]": 0,
      "[CLS]": 1,
      "[SEP]": 2,
      "[UNK]": 3,
      "!": 4,
      "\"": 5,
      "#": 6,
      "%": 7,
      "&": 8,
      "'": 9,
      "(": 10,
      ")": 11,
      "*": 12,
      "+": 13,
      ",": 14,
      "-": 15,
      ".": 16,
      "/": 17,
      "0": 18,
      "1": 19,
      "2": 20,
      "3": 21,
      "4": 22,
      "5": 23,
      "6": 24,
      "7": 25,
      "8": 26,
      "9": 27,
      ":": 28,
      "<": 29,
      "=": 30,
      ">": 31,
      "?": 32,
      "@": 33,
      "A": 34,
      "B": 35,
      "C": 36,
      "D": 37,
      "E": 38,
      "F": 39,
      "G": 40,
      "H": 41,
      "I": 42,
      "J": 43,
      "K": 44,
      "L": 45,
      "M": 46,
      "N": 47,
      "O": 48,
      "P": 49,
      "Q": 50,
      "R": 51,
      "S": 52,
      "T": 53,
      "U": 54,
      "V": 55,
      "W": 56,
      "X": 57,
      "Y": 58,
      "Z": 59,
      "\\": 60,
      "^": 61,
      "_": 62,
      "a": 63,
      "b": 64,
      "c": 65,
      "d": 66,
      "e": 67,
      "f": 68,
      "g": 69,
      "h": 70,
      "i": 71,
      "j": 72,
      "k": 73,
      "l": 74,
      "m": 75,
      "n": 76,
      "o": 77,
      "p": 78,
      "q": 79,
      "r": 80,
      "s": 81,
      "t": 82,
      "u": 83,
      "v": 84,
      "w": 85,
      "x": 86,
      "y": 87,
      "z": 88,
      "|": 89,
      "×": 90,
      "д": 91,
      "ڼ": 92,
      "ᓀ": 93,
      "ᓂ": 94,
      "​": 95,
      "…": 96,
      "‸": 97,
      "○": 98,
      "●": 99,
      "◠": 100,
      "☆": 101,
      "♡": 102,
      "♥": 103,
      "⸝": 104,
      "い": 105,
      "え": 106,
      "お": 107,
      "き": 108,
      "け": 109,
      "げ": 110,
      "せ": 111,
      "ち": 112,
      "っ": 113,
      "で": 114,
      "と": 115,
      "な": 116,
      "ね": 117,
      "の": 118,
      "ぱ": 119,
      "び": 120,
      "ま": 121,
      "め": 122,
      "り": 123,
      "ろ": 124,
      "を": 125,
      "ア": 126,
      "ウ": 127,
      "オ": 128,
      "カ": 129,
      "キ": 130,
      "グ": 131,
      "ス": 132,
      "タ": 133,
      "チ": 134,
      "ナ": 135,
      "バ": 136,
      "ヒ": 137,
      "フ": 138,
      "ブ": 139,
      "ペ": 140,
      "マ": 141,
      "ャ": 142,
      "ユ": 143,
      "リ": 144,
      "ル": 145,
      "ー": 146,
      "丁": 147,
      "万": 148,
      "三": 149,
      "上": 150,
      "下": 151,
      "不": 152,
      "丝": 153,
      "中": 154,
      "主": 155,
      "丽": 156,
      "乃": 157,
      "乗": 158,
      "乙": 159,
      "乱": 160,
      "乳": 161,
      "乾": 162,
      "予": 163,
      "事": 164,
      "二": 165,
      "互": 166,
      "五": 167,
      "井": 168,
      "亜": 169,
      "交": 170,
      "京": 171,
      "人": 172,
      "今": 173,
      "仕": 174,
      "付": 175,
      "以": 176,
      "仰": 177,
      "仲": 178,
      "伊": 179,
      "会": 180,
      "伸": 181,
      "位": 182,
      "体": 183,
      "佳": 184,
      "使": 185,
      "供": 186,
      "依": 187,
      "便": 188,
      "修": 189,
      "俵": 190,
      "倉": 191,
      "倍": 192,
      "偏": 193,
      "側": 194,
      "偵": 195,
      "偶": 196,
      "偽": 197,
      "傘": 198,
      "催": 199,
      "働": 200,
      "像": 201,
      "元": 202,
      "先": 203,
      "光": 204,
      "兎": 205,
      "児": 206,
      "兔": 207,
      "入": 208,
      "公": 209,
      "共": 210,
      "兽": 211,
      "内": 212,
      "円": 213,
      "写": 214,
      "冬": 215,
      "凌": 216,
      "処": 217,
      "刀": 218,
      "刃": 219,
      "分": 220,
      "创": 221,
      "初": 222,
      "別": 223,
      "利": 224,
      "制": 225,
      "刺": 226,
      "前": 227,
      "剣": 228,
      "剤": 229,
      "剪": 230,
      "割": 231,
      "創": 232,
      "劇": 233,
      "力": 234,
      "加": 235,
      "労": 236,
      "勃": 237,
      "勇": 238,
      "動": 239,
      "勘": 240,
      "化": 241,
      "千": 242,
      "午": 243,
      "半": 244,
      "卒": 245,
      "卓": 246,
      "卧": 247,
      "原": 248,
      "反": 249,
      "受": 250,
      "口": 251,
      "可": 252,
      "台": 253,
      "号": 254,
      "司": 255,
      "合": 256,
      "吊": 257,
      "名": 258,
      "向": 259,
      "吸": 260,
      "吹": 261,
      "呂": 262,
      "呪": 263,
      "咥": 264,
      "咲": 265,
      "哲": 266,
      "唄": 267,
      "唯": 268,
      "唾": 269,
      "喪": 270,
      "喫": 271,
      "器": 272,
      "噴": 273,
      "回": 274,
      "因": 275,
      "団": 276,
      "囧": 277,
      "困": 278,
      "図": 279,
      "国": 280,
      "園": 281,
      "圓": 282,
      "地": 283,
      "坂": 284,
      "垂": 285,
      "垃": 286,
      "垢": 287,
      "埴": 288,
      "執": 289,
      "塚": 290,
      "塩": 291,
      "増": 292,
      "墟": 293,
      "壁": 294,
      "声": 295,
      "変": 296,
      "夕": 297,
      "夜": 298,
      "夢": 299,
      "大": 300,
      "天": 301,
      "央": 302,
      "失": 303,
      "头": 304,
      "奈": 305,
      "奨": 306,
      "女": 307,
      "妃": 308,
      "妊": 309,
      "妹": 310,
      "妻": 311,
      "姉": 312,
      "姐": 313,
      "姦": 314,
      "姻": 315,
      "姿": 316,
      "娘": 317,
      "娠": 318,
      "婦": 319,
      "嫁": 320,
      "子": 321,
      "存": 322,
      "学": 323,
      "安": 324,
      "完": 325,
      "定": 326,
      "実": 327,
      "室": 328,
      "家": 329,
      "寄": 330,
      "密": 331,
      "察": 332,
      "寧": 333,
      "対": 334,
      "射": 335,
      "導": 336,
      "小": 337,
      "少": 338,
      "尻": 339,
      "尽": 340,
      "尿": 341,
      "局": 342,
      "屁": 343,
      "居": 344,
      "届": 345,
      "屋": 346,
      "山": 347,
      "岡": 348,
      "崎": 349,
      "嵐": 350,
      "川": 351,
      "左": 352,
      "巨": 353,
      "巫": 354,
      "差": 355,
      "巻": 356,
      "布": 357,
      "師": 358,
      "帯": 359,
      "常": 360,
      "帽": 361,
      "幡": 362,
      "平": 363,
      "年": 364,
      "幹": 365,
      "幼": 366,
      "広": 367,
      "度": 368,
      "座": 369,
      "廃": 370,
      "弁": 371,
      "式": 372,
      "張": 373,
      "強": 374,
      "弾": 375,
      "形": 376,
      "彩": 377,
      "後": 378,
      "徒": 379,
      "徳": 380,
      "心": 381,
      "忍": 382,
      "応": 383,
      "怖": 384,
      "性": 385,
      "怪": 386,
      "悪": 387,
      "情": 388,
      "想": 389,
      "愛": 390,
      "慈": 391,
      "慰": 392,
      "成": 393,
      "我": 394,
      "战": 395,
      "戦": 396,
      "扉": 397,
      "手": 398,
      "折": 399,
      "抜": 400,
      "拘": 401,
      "拳": 402,
      "指": 403,
      "挿": 404,
      "捆": 405,
      "捕": 406,
      "捜": 407,
      "授": 408,
      "掛": 409,
      "推": 410,
      "描": 411,
      "換": 412,
      "搾": 413,
      "撃": 414,
      "撫": 415,
      "擬": 416,
      "支": 417,
      "攻": 418,
      "敗": 419,
      "教": 420,
      "数": 421,
      "整": 422,
      "敵": 423,
      "斎": 424,
      "斧": 425,
      "方": 426,
      "族": 427,
      "旗": 428,
      "既": 429,
      "日": 430,
      "早": 431,
      "明": 432,
      "星": 433,
      "春": 434,
      "時": 435,
      "晄": 436,
      "景": 437,
      "暖": 438,
      "替": 439,
      "月": 440,
      "有": 441,
      "服": 442,
      "朝": 443,
      "期": 444,
      "木": 445,
      "未": 446,
      "本": 447,
      "机": 448,
      "村": 449,
      "杖": 450,
      "束": 451,
      "来": 452,
      "松": 453,
      "板": 454,
      "枕": 455,
      "枢": 456,
      "枷": 457,
      "柄": 458,
      "柳": 459,
      "校": 460,
      "栽": 461,
      "桐": 462,
      "桜": 463,
      "桶": 464,
      "梅": 465,
      "梨": 466,
      "械": 467,
      "梱": 468,
      "棒": 469,
      "棚": 470,
      "森": 471,
      "棲": 472,
      "椅": 473,
      "検": 474,
      "楓": 475,
      "業": 476,
      "極": 477,
      "楽": 478,
      "榴": 479,
      "様": 480,
      "模": 481,
      "樣": 482,
      "権": 483,
      "樹": 484,
      "橋": 485,
      "檎": 486,
      "檔": 487,
      "次": 488,
      "正": 489,
      "歯": 490,
      "殊": 491,
      "殺": 492,
      "殿": 493,
      "気": 494,
      "水": 495,
      "氷": 496,
      "汎": 497,
      "汗": 498,
      "決": 499,
      "没": 500,
      "注": 501,
      "活": 502,
      "浦": 503,
      "浮": 504,
      "浴": 505,
      "海": 506,
      "液": 507,
      "淫": 508,
      "混": 509,
      "済": 510,
      "温": 511,
      "測": 512,
      "游": 513,
      "湯": 514,
      "湿": 515,
      "溢": 516,
      "演": 517,
      "漢": 518,
      "漫": 519,
      "潮": 520,
      "濯": 521,
      "瀬": 522,
      "灘": 523,
      "火": 524,
      "灯": 525,
      "点": 526,
      "無": 527,
      "焼": 528,
      "煙": 529,
      "爆": 530,
      "爱": 531,
      "片": 532,
      "牙": 533,
      "牛": 534,
      "牝": 535,
      "特": 536,
      "犯": 537,
      "狂": 538,
      "狐": 539,
      "独": 540,
      "獣": 541,
      "玄": 542,
      "玉": 543,
      "王": 544,
      "玲": 545,
      "現": 546,
      "球": 547,
      "理": 548,
      "琴": 549,
      "瑠": 550,
      "甘": 551,
      "生": 552,
      "産": 553,
      "由": 554,
      "甲": 555,
      "画": 556,
      "界": 557,
      "留": 558,
      "番": 559,
      "異": 560,
      "痕": 561,
      "痴": 562,
      "発": 563,
      "白": 564,
      "百": 565,
      "的": 566,
      "盗": 567,
      "目": 568,
      "相": 569,
      "盾": 570,
      "眉": 571,
      "看": 572,
      "眼": 573,
      "着": 574,
      "瞑": 575,
      "矯": 576,
      "石": 577,
      "研": 578,
      "破": 579,
      "碧": 580,
      "確": 581,
      "礼": 582,
      "社": 583,
      "神": 584,
      "祭": 585,
      "禁": 586,
      "私": 587,
      "秋": 588,
      "秘": 589,
      "種": 590,
      "穢": 591,
      "空": 592,
      "窓": 593,
      "窩": 594,
      "童": 595,
      "競": 596,
      "笑": 597,
      "第": 598,
      "筆": 599,
      "筋": 600,
      "範": 601,
      "篠": 602,
      "簾": 603,
      "粧": 604,
      "精": 605,
      "糸": 606,
      "紀": 607,
      "紅": 608,
      "紐": 609,
      "純": 610,
      "紙": 611,
      "級": 612,
      "素": 613,
      "紫": 614,
      "絆": 615,
      "経": 616,
      "結": 617,
      "絞": 618,
      "絵": 619,
      "絶": 620,
      "緊": 621,
      "緋": 622,
      "緑": 623,
      "緒": 624,
      "編": 625,
      "練": 626,
      "縁": 627,
      "縛": 628,
      "纸": 629,
      "绑": 630,
      "绘": 631,
      "美": 632,
      "羞": 633,
      "羽": 634,
      "翔": 635,
      "翠": 636,
      "翼": 637,
      "者": 638,
      "耳": 639,
      "職": 640,
      "肉": 641,
      "肋": 642,
      "肌": 643,
      "肛": 644,
      "股": 645,
      "育": 646,
      "背": 647,
      "胖": 648,
      "胡": 649,
      "能": 650,
      "脇": 651,
      "脚": 652,
      "脳": 653,
      "腋": 654,
      "腰": 655,
      "腹": 656,
      "腺": 657,
      "腿": 658,
      "膏": 659,
      "膝": 660,
      "臀": 661,
      "臥": 662,
      "自": 663,
      "舎": 664,
      "舐": 665,
      "舟": 666,
      "色": 667,
      "花": 668,
      "莉": 669,
      "葉": 670,
      "蒼": 671,
      "蔚": 672,
      "蔵": 673,
      "薄": 674,
      "薬": 675,
      "藿": 676,
      "蘇": 677,
      "蘿": 678,
      "虎": 679,
      "虚": 680,
      "融": 681,
      "血": 682,
      "術": 683,
      "衣": 684,
      "表": 685,
      "衾": 686,
      "袋": 687,
      "袍": 688,
      "袖": 689,
      "装": 690,
      "裏": 691,
      "補": 692,
      "裸": 693,
      "褌": 694,
      "褐": 695,
      "見": 696,
      "視": 697,
      "覚": 698,
      "覧": 699,
      "観": 700,
      "角": 701,
      "記": 702,
      "設": 703,
      "証": 704,
      "詣": 705,
      "話": 706,
      "誌": 707,
      "誕": 708,
      "読": 709,
      "調": 710,
      "謎": 711,
      "謝": 712,
      "謹": 713,
      "警": 714,
      "護": 715,
      "谷": 716,
      "貓": 717,
      "貧": 718,
      "責": 719,
      "貼": 720,
      "賀": 721,
      "贫": 722,
      "赤": 723,
      "趣": 724,
      "足": 725,
      "跟": 726,
      "踏": 727,
      "踞": 728,
      "蹊": 729,
      "蹲": 730,
      "車": 731,
      "軍": 732,
      "転": 733,
      "輝": 734,
      "輪": 735,
      "辱": 736,
      "辺": 737,
      "近": 738,
      "返": 739,
      "迷": 740,
      "退": 741,
      "逆": 742,
      "透": 743,
      "連": 744,
      "運": 745,
      "道": 746,
      "遣": 747,
      "邑": 748,
      "郎": 749,
      "部": 750,
      "酒": 751,
      "重": 752,
      "野": 753,
      "金": 754,
      "釣": 755,
      "鈴": 756,
      "鉄": 757,
      "銃": 758,
      "錠": 759,
      "錬": 760,
      "鍔": 761,
      "鎖": 762,
      "鏡": 763,
      "鐘": 764,
      "锤": 765,
      "镜": 766,
      "長": 767,
      "門": 768,
      "開": 769,
      "間": 770,
      "関": 771,
      "闘": 772,
      "防": 773,
      "陥": 774,
      "陰": 775,
      "陸": 776,
      "隈": 777,
      "隊": 778,
      "階": 779,
      "隠": 780,
      "雅": 781,
      "離": 782,
      "雨": 783,
      "雪": 784,
      "雲": 785,
      "雷": 786,
      "電": 787,
      "霊": 788,
      "霞": 789,
      "露": 790,
      "面": 791,
      "靴": 792,
      "韓": 793,
      "響": 794,
      "頂": 795,
      "預": 796,
      "頬": 797,
      "頼": 798,
      "題": 799,
      "顔": 800,
      "館": 801,
      "首": 802,
      "馬": 803,
      "駅": 804,
      "騎": 805,
      "驚": 806,
      "骨": 807,
      "高": 808,
      "髪": 809,
      "鬼": 810,
      "魔": 811,
      "魚": 812,
      "鮫": 813,
      "鲁": 814,
      "鳥": 815,
      "麦": 816,
      "麻": 817,
      "黄": 818,
      "黒": 819,
      "黛": 820,
      "鼠": 821,
      "鼻": 822,
      "齵": 823,
      "꒰": 824,
      "꒱": 825,
      "﨑": 826,
      "︎": 827,
      "ｧ": 828,
      "ｨ": 829,
      "ｩ": 830,
      "ｪ": 831,
      "ｱ": 832,
      "ｽ": 833,
      "ﾃ": 834,
      "ﾄ": 835,
      "ﾅ": 836,
      "ﾋ": 837,
      "ﾐ": 838,
      "ﾙ": 839,
      "ﾜ": 840,
      "ﾝ": 841,
      "ﾞ": 842,
      "𑁬": 843,
      "🐰": 844,
      "👊": 845,
      "lu": 846,
      "hi": 847,
      "ve": 848,
      "chi": 849,
      "Ar": 850,
      "lue": 851,
      "chive": 852,
      "Blue": 853,
      "Archive": 854,
      "00": 855,
      "er": 856,
      "in": 857,
      "us": 858,
      "de": 859,
      "ers": 860,
      "users": 861,
      "000": 862,
      "inc": 863,
      "ded": 864,
      "luded": 865,
      "included": 866,
      "ou": 867,
      "BlueArchive": 868,
      "ll": 869,
      "nt": 870,
      "ac": 871,
      "Bu": 872,
      "1000": 873,
      "Archives": 874,
      "Bull": 875,
      "cou": 876,
      "count": 877,
      "account": 878,
      "ol": 879,
      "ir": 880,
      "ar": 881,
      "as": 882,
      "tu": 883,
      "or": 884,
      "an": 885,
      "al": 886,
      "ki": 887,
      "ka": 888,
      "it": 889,
      "ber": 890,
      "on": 891,
      "at": 892,
      "su": 893,
      "mi": 894,
      "You": 895,
      "Vir": 896,
      "tual": 897,
      "Virtual": 898,
      "Tu": 899,
      "ro": 900,
      "YouTu": 901,
      "YouTuber": 902,
      "ing": 903,
      "の子": 904,
      "gh": 905,
      "he": 906,
      "ive": 907,
      "en": 908,
      "os": 909,
      "Hol": 910,
      "18": 911,
      "re": 912,
      "5000": 913,
      "olive": 914,
      "Hololive": 915,
      "ic": 916,
      "ko": 917,
      "ai": 918,
      "ha": 919,
      "ut": 920,
      "is": 921,
      "ay": 922,
      "ot": 923,
      "na": 924,
      "ori": 925,
      "aki": 926,
      "ie": 927,
      "Shi": 928,
      "yu": 929,
      "ss": 930,
      "Bl": 931,
      "az": 932,
      "igh": 933,
      "Yu": 934,
      "ku": 935,
      "Mi": 936,
      "ny": 937,
      "irl": 938,
      "im": 939,
      "ho": 940,
      "umi": 941,
      "nny": 942,
      "le": 943,
      "Bunny": 944,
      "if": 945,
      "Asu": 946,
      "ra": 947,
      "and": 948,
      "ell": 949,
      "om": 950,
      "ant": 951,
      "Girl": 952,
      "st": 953,
      "ack": 954,
      "oshi": 955,
      "ast": 956,
      "tit": 957,
      "ge": 958,
      "te": 959,
      "10": 960,
      "ight": 961,
      "tits": 962,
      "Hoshi": 963,
      "ik": 964,
      "sw": 965,
      "high": 966,
      "tuber": 967,
      "am": 968,
      "suit": 969,
      "ow": 970,
      "highs": 971,
      "imsuit": 972,
      "Black": 973,
      "ose": 974,
      "un": 975,
      "Yuka": 976,
      "asumi": 977,
      "Vtuber": 978,
      "swimsuit": 979,
      "ana": 980,
      "but": 981,
      "Ri": 982,
      "elly": 983,
      "ak": 984,
      "ck": 985,
      "to": 986,
      "roko": 987,
      "Ichi": 988,
      "Shiroko": 989,
      "wa": 990,
      "ini": 991,
      "butt": 992,
      "Mar": 993,
      "no": 994,
      "the": 995,
      "ase": 996,
      "ikini": 997,
      "ail": 998,
      "Hay": 999,
      "Hayase": 1000,
      "Sor": 1001,
      "bikini": 1002,
      "ress": 1003,
      "To": 1004,
      "The": 1005,
      "ade": 1006,
      "button": 1007,
      "em": 1008,
      "Hoshino": 1009,
      "No": 1010,
      "ion": 1011,
      "all": 1012,
      "orm": 1013,
      "Asuna": 1014,
      "ina": 1015,
      "iform": 1016,
      "ear": 1017,
      "Hasumi": 1018,
      "uniform": 1019,
      "Belly": 1020,
      "aru": 1021,
      "ach": 1022,
      "usa": 1023,
      "Ma": 1024,
      "me": 1025,
      "ed": 1026,
      "Kis": 1027,
      "nose": 1028,
      "et": 1029,
      "Ichinose": 1030,
      "hite": 1031,
      "Kot": 1032,
      "Ac": 1033,
      "White": 1034,
      "Pant": 1035,
      "Kotori": 1036,
      "Kisaki": 1037,
      "uro": 1038,
      "art": 1039,
      "Marie": 1040,
      "nc": 1041,
      "omi": 1042,
      "Al": 1043,
      "Hina": 1044,
      "mp": 1045,
      "th": 1046,
      "ate": 1047,
      "ation": 1048,
      "ah": 1049,
      "ice": 1050,
      "Sa": 1051,
      "azaki": 1052,
      "Sorazaki": 1053,
      "Toki": 1054,
      "Kaz": 1055,
      "Noah": 1056,
      "dress": 1057,
      "bl": 1058,
      "alt": 1059,
      "Kotoriyu": 1060,
      "ob": 1061,
      "Enc": 1062,
      "nting": 1063,
      "hanting": 1064,
      "Enchanting": 1065,
      "Sai": 1066,
      "se": 1067,
      "Iro": 1068,
      "ym": 1069,
      "Asuka": 1070,
      "Rio": 1071,
      "An": 1072,
      "Che": 1073,
      "Ra": 1074,
      "astic": 1075,
      "nastic": 1076,
      "ymnastic": 1077,
      "ymnastics": 1078,
      "Ch": 1079,
      "ock": 1080,
      "hair": 1081,
      "Cho": 1082,
      "Salt": 1083,
      "ights": 1084,
      "el": 1085,
      "geki": 1086,
      "Chogeki": 1087,
      "Sand": 1088,
      "ad": 1089,
      "shi": 1090,
      "On": 1091,
      "Thighs": 1092,
      "tights": 1093,
      "Kuro": 1094,
      "ies": 1095,
      "Su": 1096,
      "Te": 1097,
      "thighs": 1098,
      "aka": 1099,
      "ust": 1100,
      "Kazusa": 1101,
      "ter": 1102,
      "reast": 1103,
      "Hololiveen": 1104,
      "ayo": 1105,
      "Mika": 1106,
      "ey": 1107,
      "ch": 1108,
      "suki": 1109,
      "Fu": 1110,
      "Lol": 1111,
      "少女": 1112,
      "Tail": 1113,
      "ei": 1114,
      "anna": 1115,
      "acher": 1116,
      "Iroku": 1117,
      "Teacher": 1118,
      "Sc": 1119,
      "ga": 1120,
      "Panties": 1121,
      "Chi": 1122,
      "olf": 1123,
      "ta": 1124,
      "Wolf": 1125,
      "mo": 1126,
      "ya": 1127,
      "ri": 1128,
      "do": 1129,
      "Saien": 1130,
      "inat": 1131,
      "reasts": 1132,
      "zan": 1133,
      "Anzan": 1134,
      "zu": 1135,
      "es": 1136,
      "mas": 1137,
      "Lolit": 1138,
      "High": 1139,
      "yo": 1140,
      "Lolita": 1141,
      "oust": 1142,
      "Acoust": 1143,
      "Acoustic": 1144,
      "bu": 1145,
      "ika": 1146,
      "Hana": 1147,
      "ari": 1148,
      "Kayo": 1149,
      "Kayoko": 1150,
      "Kar": 1151,
      "hool": 1152,
      "Ko": 1153,
      "Karin": 1154,
      "Rain": 1155,
      "Haru": 1156,
      "ace": 1157,
      "Gymnastics": 1158,
      "Stu": 1159,
      "ration": 1160,
      "ong": 1161,
      "Ass": 1162,
      "ig": 1163,
      "School": 1164,
      "omimi": 1165,
      "ink": 1166,
      "ip": 1167,
      "llu": 1168,
      "Onika": 1169,
      "Onikata": 1170,
      "Stump": 1171,
      "llust": 1172,
      "Saori": 1173,
      "alley": 1174,
      "cinat": 1175,
      "fas": 1176,
      "kura": 1177,
      "cinating": 1178,
      "fascinating": 1179,
      "pa": 1180,
      "Kir": 1181,
      "llustration": 1182,
      "Kak": 1183,
      "rou": 1184,
      "utate": 1185,
      "Kakutate": 1186,
      "valley": 1187,
      "yuka": 1188,
      "Pr": 1189,
      "canna": 1190,
      "blade": 1191,
      "Ryuka": 1192,
      "you": 1193,
      "ona": 1194,
      "Alice": 1195,
      "Ha": 1196,
      "lo": 1197,
      "ine": 1198,
      "Sw": 1199,
      "Lock": 1200,
      "ne": 1201,
      "asu": 1202,
      "endo": 1203,
      "ul": 1204,
      "Blo": 1205,
      "sa": 1206,
      "Tendo": 1207,
      "Sp": 1208,
      "aid": 1209,
      "eg": 1210,
      "eet": 1211,
      "ma": 1212,
      "極上": 1213,
      "Hanako": 1214,
      "not": 1215,
      "Prana": 1216,
      "Pe": 1217,
      "Be": 1218,
      "job": 1219,
      "ater": 1220,
      "Rainy": 1221,
      "ship": 1222,
      "aser": 1223,
      "Chaser": 1224,
      "Cat": 1225,
      "omers": 1226,
      "hachi": 1227,
      "kuhachi": 1228,
      "Rikuhachi": 1229,
      "od": 1230,
      "ears": 1231,
      "Iori": 1232,
      "Cr": 1233,
      "my": 1234,
      "of": 1235,
      "want": 1236,
      "breasts": 1237,
      "Bloomers": 1238,
      "buki": 1239,
      "Ne": 1240,
      "Maid": 1241,
      "aut": 1242,
      "ata": 1243,
      "llen": 1244,
      "yuki": 1245,
      "ment": 1246,
      "oot": 1247,
      "ce": 1248,
      "err": 1249,
      "pie": 1250,
      "ream": 1251,
      "Ura": 1252,
      "Urawa": 1253,
      "haru": 1254,
      "emon": 1255,
      "Koharu": 1256,
      "Leg": 1257,
      "Az": 1258,
      "ru": 1259,
      "Sh": 1260,
      "De": 1261,
      "pant": 1262,
      "stom": 1263,
      "Hair": 1264,
      "Demon": 1265,
      "stomach": 1266,
      "ara": 1267,
      "ary": 1268,
      "za": 1269,
      "be": 1270,
      "Se": 1271,
      "St": 1272,
      "go": 1273,
      "sh": 1274,
      "入り": 1275,
      "per": 1276,
      "out": 1277,
      "Acade": 1278,
      "Beaut": 1279,
      "ap": 1280,
      "pose": 1281,
      "Shimo": 1282,
      "rough": 1283,
      "Re": 1284,
      "gami": 1285,
      "Miya": 1286,
      "Miyako": 1287,
      "too": 1288,
      "girl": 1289,
      "Part": 1290,
      "Party": 1291,
      "100": 1292,
      "Hi": 1293,
      "jo": 1294,
      "oi": 1295,
      "reampie": 1296,
      "zawa": 1297,
      "Creampie": 1298,
      "Academy": 1299,
      "momimi": 1300,
      "ard": 1301,
      "itt": 1302,
      "Shir": 1303,
      "Sm": 1304,
      "bra": 1305,
      "Chemomimi": 1306,
      "Shimoe": 1307,
      "Tsuki": 1308,
      "ora": 1309,
      "how": 1310,
      "iful": 1311,
      "through": 1312,
      "Haruna": 1313,
      "Tsukiyuki": 1314,
      "Arona": 1315,
      "ama": 1316,
      "Kasumi": 1317,
      "blue": 1318,
      "rom": 1319,
      "Com": 1320,
      "ort": 1321,
      "tee": 1322,
      "archive": 1323,
      "rien": 1324,
      "by": 1325,
      "ver": 1326,
      "utsuki": 1327,
      "gymnastics": 1328,
      "lot": 1329,
      "ane": 1330,
      "ada": 1331,
      "Sei": 1332,
      "light": 1333,
      "Cheer": 1334,
      "Beautiful": 1335,
      "date": 1336,
      "Seia": 1337,
      "Small": 1338,
      "wear": 1339,
      "Yurien": 1340,
      "Foot": 1341,
      "atsu": 1342,
      "isei": 1343,
      "Miyu": 1344,
      "gai": 1345,
      "ia": 1346,
      "id": 1347,
      "Hoshigai": 1348,
      "Sakura": 1349,
      "Suisei": 1350,
      "Mom": 1351,
      "are": 1352,
      "Kurodate": 1353,
      "ont": 1354,
      "rus": 1355,
      "ure": 1356,
      "制服": 1357,
      "Ichika": 1358,
      "uck": 1359,
      "howing": 1360,
      "ke": 1361,
      "Comm": 1362,
      "Mo": 1363,
      "ittee": 1364,
      "Committee": 1365,
      "Non": 1366,
      "let": 1367,
      "mpit": 1368,
      "Neko": 1369,
      "Waka": 1370,
      "Kasumizawa": 1371,
      "Am": 1372,
      "Terr": 1373,
      "Nonomi": 1374,
      "Terror": 1375,
      "Night": 1376,
      "Ak": 1377,
      "ide": 1378,
      "notice": 1379,
      "pants": 1380,
      "68": 1381,
      "fl": 1382,
      "mata": 1383,
      "hallen": 1384,
      "ellow": 1385,
      "ame": 1386,
      "owjob": 1387,
      "Crat": 1388,
      "letter": 1389,
      "Tsu": 1390,
      "hallenge": 1391,
      "top": 1392,
      "Day": 1393,
      "Illustration": 1394,
      "Saki": 1395,
      "face": 1396,
      "mm": 1397,
      "ith": 1398,
      "Mid": 1399,
      "Azusa": 1400,
      "Armpit": 1401,
      "sage": 1402,
      "bluearchive": 1403,
      "illustration": 1404,
      "pe": 1405,
      "Wakamo": 1406,
      "Hif": 1407,
      "oob": 1408,
      "tail": 1409,
      "eki": 1410,
      "Aby": 1411,
      "ag": 1412,
      "Dress": 1413,
      "Gink": 1414,
      "qu": 1415,
      "Furus": 1416,
      "Ginkgo": 1417,
      "Furuseki": 1418,
      "ur": 1419,
      "ture": 1420,
      "massage": 1421,
      "鼠蹊": 1422,
      "Fubuki": 1423,
      "Kik": 1424,
      "His": 1425,
      "ng": 1426,
      "Kikyo": 1427,
      "Izu": 1428,
      "Sorai": 1429,
      "Izuna": 1430,
      "Challenge": 1431,
      "ok": 1432,
      "ica": 1433,
      "wearing": 1434,
      "bi": 1435,
      "oc": 1436,
      "Shirasu": 1437,
      "belly": 1438,
      "nd": 1439,
      "oobs": 1440,
      "16": 1441,
      "Him": 1442,
      "Natsu": 1443,
      "Us": 1444,
      "lothe": 1445,
      "Cel": 1446,
      "oriz": 1447,
      "Celica": 1448,
      "Saiwa": 1449,
      "Horiz": 1450,
      "Ta": 1451,
      "ale": 1452,
      "ontal": 1453,
      "Horizontal": 1454,
      "Breasts": 1455,
      "Kem": 1456,
      "au": 1457,
      "fe": 1458,
      "mutsuki": 1459,
      "um": 1460,
      "yellow": 1461,
      "ander": 1462,
      "Kiryu": 1463,
      "Hifumi": 1464,
      "Kemomimi": 1465,
      "One": 1466,
      "It": 1467,
      "showing": 1468,
      "asha": 1469,
      "Peace": 1470,
      "Momoi": 1471,
      "Hisada": 1472,
      "Fl": 1473,
      "Sak": 1474,
      "fuck": 1475,
      "Kuroe": 1476,
      "Sakasha": 1477,
      "Long": 1478,
      "ans": 1479,
      "Kuromi": 1480,
      "Midori": 1481,
      "16th": 1482,
      "Naka": 1483,
      "ld": 1484,
      "ings": 1485,
      "masa": 1486,
      "love": 1487,
      "Nakamasa": 1488,
      "EN": 1489,
      "Ka": 1490,
      "ep": 1491,
      "sol": 1492,
      "zumi": 1493,
      "ino": 1494,
      "ence": 1495,
      "Tachi": 1496,
      "Kanna": 1497,
      "bana": 1498,
      "Tachibana": 1499,
      "Pro": 1500,
      "gi": 1501,
      "sweet": 1502,
      "Izumi": 1503,
      "Water": 1504,
      "itsu": 1505,
      "shot": 1506,
      "RT": 1507,
      "chan": 1508,
      "water": 1509,
      "ani": 1510,
      "ick": 1511,
      "orts": 1512,
      "bb": 1513,
      "back": 1514,
      "Sakurako": 1515,
      "Kitsu": 1516,
      "zaka": 1517,
      "Blowjob": 1518,
      "Kitsuzaka": 1519,
      "rt": 1520,
      "isa": 1521,
      "Dis": 1522,
      "il": 1523,
      "som": 1524,
      "sc": 1525,
      "itty": 1526,
      "Titty": 1527,
      "bre": 1528,
      "jam": 1529,
      "sp": 1530,
      "pajam": 1531,
      "pajamas": 1532,
      "Aj": 1533,
      "Ui": 1534,
      "kora": 1535,
      "tr": 1536,
      "itani": 1537,
      "icture": 1538,
      "Hibi": 1539,
      "Ajitani": 1540,
      "Hibiki": 1541,
      "ang": 1542,
      "aked": 1543,
      "shirt": 1544,
      "Gu": 1545,
      "Ut": 1546,
      "ple": 1547,
      "ind": 1548,
      "old": 1549,
      "Hall": 1550,
      "Not": 1551,
      "baru": 1552,
      "nell": 1553,
      "ox": 1554,
      "azumi": 1555,
      "your": 1556,
      "Utazumi": 1557,
      "ble": 1558,
      "enade": 1559,
      "Subaru": 1560,
      "Chine": 1561,
      "Chinese": 1562,
      "Marine": 1563,
      "ART": 1564,
      "Hand": 1565,
      "Tow": 1566,
      "ony": 1567,
      "ocks": 1568,
      "machi": 1569,
      "Naked": 1570,
      "soles": 1571,
      "from": 1572,
      "ist": 1573,
      "Blade": 1574,
      "Pekora": 1575,
      "Ey": 1576,
      "kuya": 1577,
      "Hoshimachi": 1578,
      "Tokuya": 1579,
      "Towa": 1580,
      "Kan": 1581,
      "pi": 1582,
      "ailor": 1583,
      "Summ": 1584,
      "change": 1585,
      "Gy": 1586,
      "way": 1587,
      "alari": 1588,
      "amell": 1589,
      "ake": 1590,
      "sex": 1591,
      "Himari": 1592,
      "Gyalari": 1593,
      "boobs": 1594,
      "hara": 1595,
      "tume": 1596,
      "ostume": 1597,
      "icure": 1598,
      "Haruhara": 1599,
      "lothes": 1600,
      "amellia": 1601,
      "Sailor": 1602,
      "足指": 1603,
      "Nag": 1604,
      "een": 1605,
      "Myo": 1606,
      "Say": 1607,
      "part": 1608,
      "stock": 1609,
      "zuka": 1610,
      "Myojo": 1611,
      "stockings": 1612,
      "Man": 1613,
      "bing": 1614,
      "big": 1615,
      "di": 1616,
      "チャ": 1617,
      "バー": 1618,
      "赤面": 1619,
      "ath": 1620,
      "eding": 1621,
      "Swimsuit": 1622,
      "チャル": 1623,
      "バーチャル": 1624,
      "Tr": 1625,
      "arac": 1626,
      "Pants": 1627,
      "oka": 1628,
      "ass": 1629,
      "orn": 1630,
      "Nekozuka": 1631,
      "ictures": 1632,
      "aracter": 1633,
      "Sig": 1634,
      "che": 1635,
      "night": 1636,
      "tsu": 1637,
      "inger": 1638,
      "ody": 1639,
      "See": 1640,
      "Guard": 1641,
      "Ki": 1642,
      "ium": 1643,
      "ring": 1644,
      "5000users": 1645,
      "oween": 1646,
      "Saka": 1647,
      "Manicure": 1648,
      "Oper": 1649,
      "Youtuber": 1650,
      "Halloween": 1651,
      "Squ": 1652,
      "ven": 1653,
      "mile": 1654,
      "Sign": 1655,
      "Kasu": 1656,
      "Po": 1657,
      "for": 1658,
      "Yume": 1659,
      "idol": 1660,
      "breeding": 1661,
      "diary": 1662,
      "Sakamata": 1663,
      "Kasuga": 1664,
      "In": 1665,
      "OW": 1666,
      "TOW": 1667,
      "com": 1668,
      "fans": 1669,
      "ash": 1670,
      "rot": 1671,
      "azing": 1672,
      "Depart": 1673,
      "TOWART": 1674,
      "Department": 1675,
      "Rail": 1676,
      "lop": 1677,
      "Amazing": 1678,
      "Gra": 1679,
      "Just": 1680,
      "Mob": 1681,
      "Sat": 1682,
      "hh": 1683,
      "ume": 1684,
      "hiro": 1685,
      "Youtuber5000users": 1686,
      "umei": 1687,
      "ience": 1688,
      "sk": 1689,
      "ue": 1690,
      "ute": 1691,
      "El": 1692,
      "Sl": 1693,
      "iv": 1694,
      "ura": 1695,
      "with": 1696,
      "ord": 1697,
      "ower": 1698,
      "emale": 1699,
      "Panty": 1700,
      "Sports": 1701,
      "20": 1702,
      "Camellia": 1703,
      "Game": 1704,
      "ab": 1705,
      "win": 1706,
      "iri": 1707,
      "Cle": 1708,
      "fold": 1709,
      "hat": 1710,
      "oha": 1711,
      "indfold": 1712,
      "500": 1713,
      "Ser": 1714,
      "ly": 1715,
      "nium": 1716,
      "タグ": 1717,
      "Millen": 1718,
      "Anal": 1719,
      "Kanata": 1720,
      "Nagisa": 1721,
      "202": 1722,
      "Millennium": 1723,
      "Ibuki": 1724,
      "blindfold": 1725,
      "see": 1726,
      "Band": 1727,
      "Breast": 1728,
      "Pictures": 1729,
      "ji": 1730,
      "oe": 1731,
      "erry": 1732,
      "Railway": 1733,
      "Socks": 1734,
      "clothes": 1735,
      "fit": 1736,
      "og": 1737,
      "his": 1738,
      "Miko": 1739,
      "rugi": 1740,
      "Ku": 1741,
      "day": 1742,
      "ossom": 1743,
      "blossom": 1744,
      "blossoms": 1745,
      "Mas": 1746,
      "Mic": 1747,
      "feet": 1748,
      "lead": 1749,
      "own": 1750,
      "Cherry": 1751,
      "Cheerlead": 1752,
      "Moe": 1753,
      "Ce": 1754,
      "Gen": 1755,
      "Pink": 1756,
      "Sn": 1757,
      "ft": 1758,
      "lander": 1759,
      "tion": 1760,
      "up": 1761,
      "character": 1762,
      "Highlander": 1763,
      "Azki": 1764,
      "Users": 1765,
      "Cheerleader": 1766,
      "iz": 1767,
      "ty": 1768,
      "xpose": 1769,
      "虚偽": 1770,
      "velop": 1771,
      "Science": 1772,
      "入りタグ": 1773,
      "Justice": 1774,
      "velopment": 1775,
      "Smile": 1776,
      "apa": 1777,
      "cle": 1778,
      "dos": 1779,
      "ede": 1780,
      "gin": 1781,
      "ool": 1782,
      "sy": 1783,
      "arr": 1784,
      "ity": 1785,
      "hen": 1786,
      "aking": 1787,
      "Cheapa": 1788,
      "ongue": 1789,
      "Development": 1790,
      "Tsurugi": 1791,
      "Abydos": 1792,
      "Cheapau": 1793,
      "Costume": 1794,
      "har": 1795,
      "rist": 1796,
      "outh": 1797,
      "Sword": 1798,
      "Abyss": 1799,
      "Fan": 1800,
      "Lo": 1801,
      "Oka": 1802,
      "_art": 1803,
      "uji": 1804,
      "asa": 1805,
      "als": 1806,
      "ifuji": 1807,
      "Loli": 1808,
      "Kirifuji": 1809,
      "Satsuki": 1810,
      "Ay": 1811,
      "Ogami": 1812,
      "Sle": 1813,
      "man": 1814,
      "irth": 1815,
      "one": 1816,
      "ssor": 1817,
      "Mio": 1818,
      "fessor": 1819,
      "Kaho": 1820,
      "2024": 1821,
      "Micro": 1822,
      "With": 1823,
      "Yoshi": 1824,
      "kka": 1825,
      "line": 1826,
      "irt": 1827,
      "Yumi": 1828,
      "ime": 1829,
      "Akane": 1830,
      "Professor": 1831,
      "Gau": 1832,
      "Hak": 1833,
      "Muro": 1834,
      "yori": 1835,
      "ift": 1836,
      "that": 1837,
      "Chick": 1838,
      "ongs": 1839,
      "Yoshimi": 1840,
      "Gauru": 1841,
      "Hakos": 1842,
      "yama": 1843,
      "meir": 1844,
      "outfit": 1845,
      "Nekomata": 1846,
      "onytail": 1847,
      "kkake": 1848,
      "Hik": 1849,
      "Q10": 1850,
      "mon": 1851,
      "tip": 1852,
      "lla": 1853,
      "Bukkake": 1854,
      "rip": 1855,
      "Natsumeir": 1856,
      "Okayu": 1857,
      "Natsumeiroha": 1858,
      "Aku": 1859,
      "Female": 1860,
      "Ihar": 1861,
      "My": 1862,
      "Minat": 1863,
      "Sayo": 1864,
      "Twin": 1865,
      "ekura": 1866,
      "her": 1867,
      "mouth": 1868,
      "songs": 1869,
      "ross": 1870,
      "wagami": 1871,
      "Their": 1872,
      "Kazekura": 1873,
      "Chu": 1874,
      "bbit": 1875,
      "Kuwagami": 1876,
      "Chicken": 1877,
      "Hikari": 1878,
      "Iharaki": 1879,
      "Minato": 1880,
      "Ami": 1881,
      "Gl": 1882,
      "女子": 1883,
      "ouble": 1884,
      "Maede": 1885,
      "Rabbit": 1886,
      "Akua": 1887,
      "Double": 1888,
      "Gift": 1889,
      "Wet": 1890,
      "cip": 1891,
      "cute": 1892,
      "Yuzu": 1893,
      "Sweet": 1894,
      "Discip": 1895,
      "angle": 1896,
      "Elf": 1897,
      "30": 1898,
      "Aka": 1899,
      "hand": 1900,
      "les": 1901,
      "ted": 1902,
      "Hanaoka": 1903,
      "itting": 1904,
      "Hok": 1905,
      "Yut": 1906,
      "ba": 1907,
      "can": 1908,
      "ponytail": 1909,
      "ys": 1910,
      "hind": 1911,
      "0068": 1912,
      "Christ": 1913,
      "Chihiro": 1914,
      "Real": 1915,
      "Summary": 1916,
      "Yutori": 1917,
      "Christmas": 1918,
      "Any": 1919,
      "zomi": 1920,
      "絵巻": 1921,
      "leg": 1922,
      "wawa": 1923,
      "Nozomi": 1924,
      "eart": 1925,
      "Kirino": 1926,
      "Opera": 1927,
      "Squad": 1928,
      "ogaki": 1929,
      "Discipline": 1930,
      "Hokki": 1931,
      "Ge": 1932,
      "Ir": 1933,
      "Kay": 1934,
      "Oz": 1935,
      "Tan": 1936,
      "der": 1937,
      "eat": 1938,
      "ould": 1939,
      "read": 1940,
      "Iroha": 1941,
      "Spogaki": 1942,
      "ization": 1943,
      "ginal": 1944,
      "Chubu": 1945,
      "Ozora": 1946,
      "..": 1947,
      "Gre": 1948,
      "Hal": 1949,
      "Mot": 1950,
      "Pus": 1951,
      "Taking": 1952,
      "maki": 1953,
      "int": 1954,
      "inu": 1955,
      "ira": 1956,
      "ster": 1957,
      "eyes": 1958,
      "Realization": 1959,
      "Anyama": 1960,
      "Fox": 1961,
      "Heart": 1962,
      "Wink": 1963,
      "What": 1964,
      "gure": 1965,
      "lub": 1966,
      "Shishi": 1967,
      "Shigure": 1968,
      "Account": 1969,
      "New": 1970,
      "auna": 1971,
      "Th": 1972,
      "kne": 1973,
      "op": 1974,
      "side": 1975,
      "ish": 1976,
      "Shun": 1977,
      "Seven": 1978,
      "Akira": 1979,
      "andere": 1980,
      "ingerie": 1981,
      "Snow": 1982,
      "Sleep": 1983,
      "Tanka": 1984,
      "Airi": 1985,
      "Fir": 1986,
      "Ig": 1987,
      "Lap": 1988,
      "fake": 1989,
      "prom": 1990,
      "hood": 1991,
      "Gehen": 1992,
      "oulder": 1993,
      "Coc": 1994,
      "Imp": 1995,
      "Kaka": 1996,
      "Kur": 1997,
      "Year": 1998,
      "_prom": 1999,
      "down": 2000,
      "expose": 2001,
      "oll": 2002,
      "imura": 2003,
      "Tea": 2004,
      "behind": 2005,
      "Flower": 2006,
      "enade_prom": 2007,
      "pix": 2008,
      "Serenade_prom": 2009,
      "irthday": 2010,
      "Cocona": 2011,
      "Kakami": 2012,
      "Kurimura": 2013,
      "exposed": 2014,
      "Serenade_promenade": 2015,
      "Yandere": 2016,
      "bath": 2017,
      "fter": 2018,
      "past": 2019,
      "inity": 2020,
      "ister": 2021,
      "Iroki": 2022,
      "Hiyori": 2023,
      "Eye": 2024,
      "Trinity": 2025,
      "rossed": 2026,
      "Rei": 2027,
      "Tongue": 2028,
      "barr": 2029,
      "ding": 2030,
      "hol": 2031,
      "pet": 2032,
      "saki": 2033,
      "ersey": 2034,
      "ashi": 2035,
      "ico": 2036,
      "embarr": 2037,
      "Chest": 2038,
      "app": 2039,
      "assed": 2040,
      "Gehenna": 2041,
      "embarrassed": 2042,
      "Mumei": 2043,
      "Ru": 2044,
      "body": 2045,
      "crossed": 2046,
      "don": 2047,
      "lump": 2048,
      "china": 2049,
      "sumi": 2050,
      "ems": 2051,
      "ayoi": 2052,
      "Koyuki": 2053,
      "verse": 2054,
      "Tsuchina": 2055,
      "Poems": 2056,
      "Tsuchinaga": 2057,
      "After": 2058,
      "Mayoi": 2059,
      "con": 2060,
      "lingerie": 2061,
      "this": 2062,
      "asse": 2063,
      "ats": 2064,
      "Sandow": 2065,
      "Kurosaki": 2066,
      "yosumi": 2067,
      "pain": 2068,
      "Reverse": 2069,
      "Kiyosumi": 2070,
      "Reijo": 2071,
      "asses": 2072,
      "Haruka": 2073,
      "roup": 2074,
      "ulation": 2075,
      "Amane": 2076,
      "painted": 2077,
      "Atsu": 2078,
      "Erot": 2079,
      "Mutsuki": 2080,
      "Nico": 2081,
      "Sen": 2082,
      "gl": 2083,
      "gasa": 2084,
      "ian": 2085,
      "kari": 2086,
      "ous": 2087,
      "heart": 2088,
      "Murogasa": 2089,
      "Igusa": 2090,
      "Atsuko": 2091,
      "Erotic": 2092,
      "jac": 2093,
      "ug": 2094,
      "demon": 2095,
      "koto": 2096,
      "Makoto": 2097,
      "flash": 2098,
      "mmer": 2099,
      "Gart": 2100,
      "hin": 2101,
      "ound": 2102,
      "tur": 2103,
      "anu": 2104,
      "tein": 2105,
      "Rave": 2106,
      "panty": 2107,
      "oco": 2108,
      "Protein": 2109,
      "scary": 2110,
      "Pussy": 2111,
      "hoodie": 2112,
      "jaculation": 2113,
      "Garter": 2114,
      "Club": 2115,
      "Od": 2116,
      "Sister": 2117,
      "cl": 2118,
      "group": 2119,
      "ps": 2120,
      "tre": 2121,
      "kayama": 2122,
      "atter": 2123,
      "issa": 2124,
      "iew": 2125,
      "Shikayama": 2126,
      "Yukari": 2127,
      "anding": 2128,
      "Legs": 2129,
      "Usada": 2130,
      "Ravenc": 2131,
      "Odd": 2132,
      "AI": 2133,
      "Over": 2134,
      "foot": 2135,
      "ping": 2136,
      "pre": 2137,
      "長乳": 2138,
      "ntine": 2139,
      "roft": 2140,
      "Holox": 2141,
      "Mion": 2142,
      "asure": 2143,
      "Spread": 2144,
      "alentine": 2145,
      "appear": 2146,
      "Ravencroft": 2147,
      "Aoi": 2148,
      "Iona": 2149,
      "Nana": 2150,
      "Rin": 2151,
      "po": 2152,
      "ron": 2153,
      "ser": 2154,
      "uka": 2155,
      "uth": 2156,
      "Rami": 2157,
      "perch": 2158,
      "truth": 2159,
      "cheer": 2160,
      "Nanagami": 2161,
      "Ahh": 2162,
      "Br": 2163,
      "Old": 2164,
      "Pol": 2165,
      "gu": 2166,
      "ket": 2167,
      "vella": 2168,
      "aning": 2169,
      "anta": 2170,
      "stone": 2171,
      "Standing": 2172,
      "tails": 2173,
      "Ahhh": 2174,
      "Gal": 2175,
      "Santa": 2176,
      "pen": 2177,
      "ank": 2178,
      "ance": 2179,
      "ales": 2180,
      "Shizu": 2181,
      "shoulder": 2182,
      "Summer": 2183,
      "oemi": 2184,
      "Myster": 2185,
      "Motoemi": 2186,
      "Sleeping": 2187,
      "treasure": 2188,
      "BB": 2189,
      "Birthday": 2190,
      "IV": 2191,
      "Kon": 2192,
      "Ntr": 2193,
      "sil": 2194,
      "acle": 2195,
      "robe": 2196,
      "ikatsu": 2197,
      "Koikatsu": 2198,
      "Flare": 2199,
      "loves": 2200,
      "Fanki": 2201,
      "Shishira": 2202,
      "Auro": 2203,
      "Bales": 2204,
      "Crou": 2205,
      "Hot": 2206,
      "Kyo": 2207,
      "Plump": 2208,
      "Round": 2209,
      "ct": 2210,
      "je": 2211,
      "wam": 2212,
      "Arian": 2213,
      "aring": 2214,
      "imp": 2215,
      "Fuwam": 2216,
      "Rikuhachima": 2217,
      "Crony": 2218,
      "goku": 2219,
      "Cleaning": 2220,
      "bathrobe": 2221,
      "Kyogoku": 2222,
      "Fuwamoco": 2223,
      "Nip": 2224,
      "Sem": 2225,
      "War": 2226,
      "_a": 2227,
      "gn": 2228,
      "ix": 2229,
      "lick": 2230,
      "ood": 2231,
      "yle": 2232,
      "天使": 2233,
      "have": 2234,
      "rape": 2235,
      "Marina": 2236,
      "blowjob": 2237,
      "els": 2238,
      "Fuwawa": 2239,
      "First": 2240,
      "Big": 2241,
      "Hya": 2242,
      "Wi": 2243,
      "Who": 2244,
      "bation": 2245,
      "ci": 2246,
      "view": 2247,
      "生成": 2248,
      "otard": 2249,
      "Shiori": 2250,
      "kudemon": 2251,
      "Tomi": 2252,
      "Spe": 2253,
      "Eyes": 2254,
      "skirt": 2255,
      "Clearing": 2256,
      "Ayame": 2257,
      "Irys": 2258,
      "turbation": 2259,
      "Hyakudemon": 2260,
      "Boobs": 2261,
      "LIV": 2262,
      "right": 2263,
      "ving": 2264,
      "But": 2265,
      "head": 2266,
      "ive_a": 2267,
      "koko": 2268,
      "original": 2269,
      "style": 2270,
      "black": 2271,
      "Anime": 2272,
      "Sandals": 2273,
      "piece": 2274,
      "Moon": 2275,
      "Mokoko": 2276,
      "flow": 2277,
      "eaty": 2278,
      "gnate": 2279,
      "LIVE": 2280,
      "ive_aLIVE": 2281,
      "Clothe": 2282,
      "Nin": 2283,
      "SD": 2284,
      "Showing": 2285,
      "ek": 2286,
      "fool": 2287,
      "late": 2288,
      "slu": 2289,
      "生生": 2290,
      "inar": 2291,
      "oro": 2292,
      "regnate": 2293,
      "Panther": 2294,
      "Sweaty": 2295,
      "Reisa": 2296,
      "Impregnate": 2297,
      "Clothed": 2298,
      "Panthera": 2299,
      "Side": 2300,
      "Valentine": 2301,
      "ami": 2302,
      "オペ": 2303,
      "カリ": 2304,
      "小隊": 2305,
      "森カリ": 2306,
      "alk": 2307,
      "Miman": 2308,
      "ema": 2309,
      "Kirara": 2310,
      "pixiv": 2311,
      "森カリオペ": 2312,
      "Mimanel": 2313,
      "Dar": 2314,
      "He": 2315,
      "Nan": 2316,
      "OL": 2317,
      "Uzawa": 2318,
      "lace": 2319,
      "mumei": 2320,
      "nis": 2321,
      "spa": 2322,
      "sitting": 2323,
      "ory": 2324,
      "less": 2325,
      "titjob": 2326,
      "amy": 2327,
      "under": 2328,
      "Kazema": 2329,
      "elz": 2330,
      "tain": 2331,
      "Hairstyle": 2332,
      "Shiranu": 2333,
      "kekura": 2334,
      "chest": 2335,
      "rotch": 2336,
      "Half": 2337,
      "ashimumei": 2338,
      "Mystery": 2339,
      "Seminar": 2340,
      "Wii": 2341,
      "Nanashimumei": 2342,
      "Shiranui": 2343,
      "Body": 2344,
      "Fauna": 2345,
      "Ham": 2346,
      "IT": 2347,
      "Ikekura": 2348,
      "Light": 2349,
      "Mir": 2350,
      "Morn": 2351,
      "Ren": 2352,
      "ff": 2353,
      "net": 2354,
      "pro": 2355,
      "Art": 2356,
      "1000users": 2357,
      "kiss": 2358,
      "reen": 2359,
      "Fuuka": 2360,
      "young": 2361,
      "Short": 2362,
      "beaut": 2363,
      "some": 2364,
      "Celes": 2365,
      "kness": 2366,
      "Butt": 2367,
      "Morning": 2368,
      "Bab": 2369,
      "Comi": 2370,
      "Fish": 2371,
      "Mis": 2372,
      "RA": 2373,
      "ae": 2374,
      "sem": 2375,
      "tie": 2376,
      "ore": 2377,
      "hammer": 2378,
      "Sec": 2379,
      "ontro": 2380,
      "Handjob": 2381,
      "clip": 2382,
      "Warhammer": 2383,
      "cial": 2384,
      "Special": 2385,
      "Fishnet": 2386,
      "semen": 2387,
      "Ball": 2388,
      "Finger": 2389,
      "Jersey": 2390,
      "dig": 2391,
      "ejaculation": 2392,
      "hose": 2393,
      "rimp": 2394,
      "aist": 2395,
      "ations": 2396,
      "elt": 2397,
      "Beach": 2398,
      "Shorts": 2399,
      "Shrimp": 2400,
      "ngl": 2401,
      "Disappear": 2402,
      "spring": 2403,
      "Operations": 2404,
      "Overflow": 2405,
      "BBIT": 2406,
      "RABBIT": 2407,
      "Disappeared": 2408,
      "Overflowing": 2409,
      "50": 2410,
      "Bikini": 2411,
      "Mama": 2412,
      "eve": 2413,
      "fro": 2414,
      "pol": 2415,
      "Bluearchive": 2416,
      "erson": 2417,
      "sungl": 2418,
      "omae": 2419,
      "stra": 2420,
      "strip": 2421,
      "Super": 2422,
      "Beauty": 2423,
      "apron": 2424,
      "Azkiart": 2425,
      "inuma": 2426,
      "Laplace": 2427,
      "Ninomae": 2428,
      "Darkness": 2429,
      "Haminuma": 2430,
      "Babies": 2431,
      "front": 2432,
      "sunglasses": 2433,
      "Ais": 2434,
      "Bot": 2435,
      "Cool": 2436,
      "Flo": 2437,
      "Gem": 2438,
      "Rumi": 2439,
      "Ya": 2440,
      "costume": 2441,
      "ging": 2442,
      "so": 2443,
      "s_art": 2444,
      "lus_art": 2445,
      "iny": 2446,
      "dent": 2447,
      "desu": 2448,
      "llow": 2449,
      "Young": 2450,
      "heels": 2451,
      "leotard": 2452,
      "rain": 2453,
      "Kiss": 2454,
      "Chise": 2455,
      "Hanae": 2456,
      "off": 2457,
      "String": 2458,
      "sky": 2459,
      "type": 2460,
      "...": 2461,
      "cond": 2462,
      "Crouch": 2463,
      "Aishin": 2464,
      "Float": 2465,
      "lus_artdesu": 2466,
      "Kinu": 2467,
      "Pan": 2468,
      "Red": 2469,
      "Sel": 2470,
      "Sitting": 2471,
      "_ina": 2472,
      "bo": 2473,
      "cow": 2474,
      "dol": 2475,
      "socks": 2476,
      "torn": 2477,
      "va": 2478,
      "陥没": 2479,
      "Archivema": 2480,
      "utan": 2481,
      "raw": 2482,
      "spear": 2483,
      "Ayane": 2484,
      "Hakosba": 2485,
      "Glory": 2486,
      "Kaya": 2487,
      "Senna": 2488,
      "licking": 2489,
      "Comic": 2490,
      "Ninomae_ina": 2491,
      "Hakosbaelz": 2492,
      "Cer": 2493,
      "Dream": 2494,
      "Idol": 2495,
      "Lamy": 2496,
      "Mine": 2497,
      "Nel": 2498,
      "Rade": 2499,
      "Wara": 2500,
      "bber": 2501,
      "fan": 2502,
      "rie": 2503,
      "sha": 2504,
      "sence": 2505,
      "wip": 2506,
      "erino": 2507,
      "hook": 2508,
      "amp": 2509,
      "Cherino": 2510,
      "gawa": 2511,
      "bunny": 2512,
      "iding": 2513,
      "Himuro": 2514,
      "Sliding": 2515,
      "about": 2516,
      "Sweets": 2517,
      "presence": 2518,
      "Misaki": 2519,
      "digging": 2520,
      "straps": 2521,
      "Botan": 2522,
      "Kinugawa": 2523,
      "Self": 2524,
      "Lamyart": 2525,
      "Raden": 2526,
      "Waraku": 2527,
      "wiper": 2528,
      "Cos": 2529,
      "Kne": 2530,
      "Ou": 2531,
      "Tre": 2532,
      "Tiny": 2533,
      "belt": 2534,
      "lac": 2535,
      "ning": 2536,
      "pai": 2537,
      "patter": 2538,
      "wel": 2539,
      "上位": 2540,
      "den": 2541,
      "nth": 2542,
      "ical": 2543,
      "iff": 2544,
      "ike": 2545,
      "Market": 2546,
      "Sora": 2547,
      "Only": 2548,
      "Chin": 2549,
      "Chiara": 2550,
      "ria": 2551,
      "Strip": 2552,
      "Hands": 2553,
      "Twinter": 2554,
      "slut": 2555,
      "Nelissa": 2556,
      "Oument": 2557,
      "pattern": 2558,
      "As": 2559,
      "La": 2560,
      "band": 2561,
      "ill": 2562,
      "long": 2563,
      "person": 2564,
      "ten": 2565,
      "ugami": 2566,
      "ujo": 2567,
      "waist": 2568,
      "hina": 2569,
      "act": 2570,
      "olear": 2571,
      "atria": 2572,
      "Shion": 2573,
      "Novella": 2574,
      "eth": 2575,
      "arting": 2576,
      "Shujo": 2577,
      "beje": 2578,
      "Stro": 2579,
      "urse": 2580,
      "Kaino": 2581,
      "epolear": 2582,
      "pillow": 2583,
      "sexy": 2584,
      "Inugami": 2585,
      "Masturbation": 2586,
      "polepolear": 2587,
      "Gematria": 2588,
      "Knee": 2589,
      "Treat": 2590,
      "bejewel": 2591,
      "Aom": 2592,
      "Cl": 2593,
      "From": 2594,
      "Maki": 2595,
      "co": 2596,
      "camp": 2597,
      "fauna": 2598,
      "gon": 2599,
      "ks": 2600,
      "mu": 2601,
      "ped": 2602,
      "ric": 2603,
      "ola": 2604,
      "hed": 2605,
      "oman": 2606,
      "Ribb": 2607,
      "mel": 2608,
      "alter": 2609,
      "China": 2610,
      "esfauna": 2611,
      "Blood": 2612,
      "Starting": 2613,
      "loth": 2614,
      "giant": 2615,
      "spats": 2616,
      "plete": 2617,
      "Slip": 2618,
      "Miko_art": 2619,
      "hololive": 2620,
      "atson": 2621,
      "point": 2622,
      "Police": 2623,
      "Konoka": 2624,
      "condom": 2625,
      "Ceresfauna": 2626,
      "Aomori": 2627,
      "Asa": 2628,
      "Clothes": 2629,
      "Watson": 2630,
      "Yellow": 2631,
      "cat": 2632,
      "crotch": 2633,
      "ee": 2634,
      "green": 2635,
      "mer": 2636,
      "ner": 2637,
      "Arm": 2638,
      "inser": 2639,
      "kai": 2640,
      "Hololiveid": 2641,
      "kuko": 2642,
      "agu": 2643,
      "Handsome": 2644,
      "complete": 2645,
      "Loving": 2646,
      "Laplus_artdesu": 2647,
      "Miracle": 2648,
      "Laola": 2649,
      "completely": 2650,
      "40": 2651,
      "Futan": 2652,
      "Or": 2653,
      "Ori": 2654,
      "Six": 2655,
      "Tom": 2656,
      "Valk": 2657,
      "bration": 2658,
      "coll": 2659,
      "fab": 2660,
      "gen": 2661,
      "io": 2662,
      "put": 2663,
      "sle": 2664,
      "ying": 2665,
      "yrie": 2666,
      "高生": 2667,
      "hing": 2668,
      "ered": 2669,
      "oral": 2670,
      "micom": 2671,
      "Holo": 2672,
      "Michi": 2673,
      "lebration": 2674,
      "aster": 2675,
      "mask": 2676,
      "ult": 2677,
      "Str": 2678,
      "quer": 2679,
      "Love": 2680,
      "guide": 2681,
      "lacquer": 2682,
      "Striped": 2683,
      "Ribbed": 2684,
      "Futanari": 2685,
      "Original": 2686,
      "Valkyrie": 2687,
      "fabric": 2688,
      "micomet": 2689,
      "Bo": 2690,
      "Cy": 2691,
      "Int": 2692,
      "Oh": 2693,
      "She": 2694,
      "Un": 2695,
      "Unc": 2696,
      "Wa": 2697,
      "cir": 2698,
      "gloves": 2699,
      "hug": 2700,
      "ious": 2701,
      "jersey": 2702,
      "kn": 2703,
      "kasa": 2704,
      "mori": 2705,
      "ray": 2706,
      "si": 2707,
      "緊縛": 2708,
      "miya": 2709,
      "ret": 2710,
      "resh": 2711,
      "imple": 2712,
      "stick": 2713,
      "ther": 2714,
      "Hakuko": 2715,
      "teenth": 2716,
      "keb": 2717,
      "flame": 2718,
      "Kankai": 2719,
      "Mashiro": 2720,
      "Q105": 2721,
      "legs": 2722,
      "Halo": 2723,
      "pantyhose": 2724,
      "Bloodflame": 2725,
      "Slipping": 2726,
      "insertion": 2727,
      "Sixteenth": 2728,
      "En": 2729,
      "Ex": 2730,
      "Fight": 2731,
      "Kama": 2732,
      "Le": 2733,
      "Me": 2734,
      "Rai": 2735,
      "Rose": 2736,
      "Thigh": 2737,
      "boot": 2738,
      "cil": 2739,
      "dist": 2740,
      "pan": 2741,
      "tongue": 2742,
      "wor": 2743,
      "事前": 2744,
      "ouch": 2745,
      "arm": 2746,
      "ght": 2747,
      "rew": 2748,
      "Alop": 2749,
      "Character": 2750,
      "look": 2751,
      "neck": 2752,
      "panties": 2753,
      "Himiya": 2754,
      "feel": 2755,
      "sole": 2756,
      "ickOr": 2757,
      "TrickOr": 2758,
      "Kiive": 2759,
      "Poor": 2760,
      "Inner": 2761,
      "Cecil": 2762,
      "dons": 2763,
      "viewpoint": 2764,
      "Chinatsu": 2765,
      "tendons": 2766,
      "Treat2024": 2767,
      "Michiru": 2768,
      "Cycle": 2769,
      "Kamage": 2770,
      "Raise": 2771,
      "boots": 2772,
      "Alopra": 2773,
      "TrickOrTreat2024": 2774,
      "2000": 2775,
      "Ain": 2776,
      "Bang": 2777,
      "Bath": 2778,
      "Cute": 2779,
      "Contro": 2780,
      "Expose": 2781,
      "Gig": 2782,
      "Ner": 2783,
      "Ph": 2784,
      "Pl": 2785,
      "Rash": 2786,
      "Skeb": 2787,
      "Wed": 2788,
      "beth": 2789,
      "eater": 2790,
      "fa": 2791,
      "fin": 2792,
      "iza": 2793,
      "oh": 2794,
      "pl": 2795,
      "tow": 2796,
      "ze": 2797,
      "0000": 2798,
      "enment": 2799,
      "aight": 2800,
      "stru": 2801,
      "stiv": 2802,
      "Riding": 2803,
      "Neku": 2804,
      "versy": 2805,
      "lightenment": 2806,
      "flat": 2807,
      "urtain": 2808,
      "Kawawa": 2809,
      "Disaster": 2810,
      "Eliza": 2811,
      "Celebration": 2812,
      "Murokasa": 2813,
      "ysical": 2814,
      "holo": 2815,
      "Shizuko": 2816,
      "Moonlight": 2817,
      "amisole": 2818,
      "Head": 2819,
      "Selfie": 2820,
      "collar": 2821,
      "Enlightenment": 2822,
      "Fighting": 2823,
      "Controversy": 2824,
      "Physical": 2825,
      "Wedding": 2826,
      "towel": 2827,
      "stival": 2828,
      "Elizabeth": 2829,
      "Down": 2830,
      "Mor": 2831,
      "Sk": 2832,
      "This": 2833,
      "We": 2834,
      "Wind": 2835,
      "_out": 2836,
      "ball": 2837,
      "clo": 2838,
      "camellia": 2839,
      "dori": 2840,
      "female": 2841,
      "ile": 2842,
      "nurse": 2843,
      "ry": 2844,
      "rink": 2845,
      "事後": 2846,
      "夜景": 2847,
      "姉妹": 2848,
      "ching": 2849,
      "ite": 2850,
      "iting": 2851,
      "Virtualyou": 2852,
      "hea": 2853,
      "left": 2854,
      "allio": 2855,
      "tag": 2856,
      "Prank": 2857,
      "Shro": 2858,
      "urin": 2859,
      "school": 2860,
      "Q104": 2861,
      "side_out": 2862,
      "Rubber": 2863,
      "poor": 2864,
      "Shizuyama": 2865,
      "silk": 2866,
      "Nipress": 2867,
      "beauty": 2868,
      "Section": 2869,
      "Yabuki": 2870,
      "Tomoe": 2871,
      "Straight": 2872,
      "Sheside_out": 2873,
      "Nerissa": 2874,
      "Virtualyoutuber": 2875,
      "alliope": 2876,
      "Sheside_outSide": 2877,
      "Aho": 2878,
      "Aband": 2879,
      "Bra": 2880,
      "Back": 2881,
      "Cro": 2882,
      "Cuck": 2883,
      "Lie": 2884,
      "Meg": 2885,
      "ON": 2886,
      "Press": 2887,
      "aby": 2888,
      "bot": 2889,
      "give": 2890,
      "gra": 2891,
      "gura": 2892,
      "giri": 2893,
      "king": 2894,
      "rs": 2895,
      "ren": 2896,
      "smile": 2897,
      "vtuber": 2898,
      "頬杖": 2899,
      "vel": 2900,
      "vent": 2901,
      "eric": 2902,
      "sur": 2903,
      "sure": 2904,
      "mika": 2905,
      "hel": 2906,
      "het": 2907,
      "icalliope": 2908,
      "gel": 2909,
      "Hoshihina": 2910,
      "bution": 2911,
      "Sajo": 2912,
      "Suoh": 2913,
      "Chidori": 2914,
      "ribution": 2915,
      "Deep": 2916,
      "Americ": 2917,
      "bread": 2918,
      "glass": 2919,
      "Bras": 2920,
      "shaped": 2921,
      "hololive_art": 2922,
      "Asagiri": 2923,
      "circle": 2924,
      "distribution": 2925,
      "Moricalliope": 2926,
      "closure": 2927,
      "tags": 2928,
      "Sectional": 2929,
      "Ahohair": 2930,
      "Abandon": 2931,
      "American": 2932,
      "!!": 2933,
      "Ad": 2934,
      "Amel": 2935,
      "Cut": 2936,
      "Cra": 2937,
      "Dig": 2938,
      "FO": 2939,
      "Fw": 2940,
      "Gloves": 2941,
      "Kagu": 2942,
      "Lil": 2943,
      "Mina": 2944,
      "Pri": 2945,
      "Ste": 2946,
      "Up": 2947,
      "_Ravencroft": 2948,
      "ava": 2949,
      "bara": 2950,
      "cchi": 2951,
      "cut": 2952,
      "cod": 2953,
      "cpix": 2954,
      "dia": 2955,
      "ess": 2956,
      "fic": 2957,
      "fut": 2958,
      "like": 2959,
      "mar": 2960,
      "mcpix": 2961,
      "nip": 2962,
      "pr": 2963,
      "picture": 2964,
      "pictures": 2965,
      "ward": 2966,
      "woman": 2967,
      "先生": 2968,
      "kawa": 2969,
      "itch": 2970,
      "mia": 2971,
      "raoral": 2972,
      "Noahyu": 2973,
      "Student": 2974,
      "sair": 2975,
      "Crying": 2976,
      "Sex": 2977,
      "flip": 2978,
      "Hifu": 2979,
      "ples": 2980,
      "Sniff": 2981,
      "also": 2982,
      "Glasses": 2983,
      "Shishido": 2984,
      "Through": 2985,
      "knee": 2986,
      "Fire": 2987,
      "Rufut": 2988,
      "Nipple": 2989,
      "Fingering": 2990,
      "gonal": 2991,
      "eeze": 2992,
      "Book": 2993,
      "Intraoral": 2994,
      "Bangs": 2995,
      "Nekupai": 2996,
      "Nerissa_Ravencroft": 2997,
      "Crocod": 2998,
      "Cuckold": 2999,
      "bott": 3000,
      "gives": 3001,
      "Abandonment": 3002,
      "Crab": 3003,
      "FOX": 3004,
      "Fwmcpix": 3005,
      "Kaguya": 3006,
      "avage": 3007,
      "diagonal": 3008,
      "fiction": 3009,
      "nipples": 3010,
      "Rufutei": 3011,
      "Crocodile": 3012,
      "Con": 3013,
      "Dol": 3014,
      "Ear": 3015,
      "Ejaculation": 3016,
      "Five": 3017,
      "Halter": 3018,
      "Is": 3019,
      "JK": 3020,
      "Jun": 3021,
      "Pu": 3022,
      "Pix": 3023,
      "Sin": 3024,
      "Sus": 3025,
      "Sara": 3026,
      "Urus": 3027,
      "birth": 3028,
      "food": 3029,
      "hou": 3030,
      "maid": 3031,
      "nu": 3032,
      "phin": 3033,
      "take": 3034,
      "ua": 3035,
      "地雷": 3036,
      "hibara": 3037,
      "into": 3038,
      "roat": 3039,
      "ingers": 3040,
      "rap": 3041,
      "sweater": 3042,
      "cking": 3043,
      "eme": 3044,
      "eta": 3045,
      "omido": 3046,
      "Chemo": 3047,
      "Chipa": 3048,
      "Hami": 3049,
      "sakura": 3050,
      "Academia": 3051,
      "Shimokura": 3052,
      "Momomido": 3053,
      "screw": 3054,
      "Kiki": 3055,
      "Serina": 3056,
      "Q103": 3057,
      "Green": 3058,
      "Greek": 3059,
      "Konoe": 3060,
      "Renkawa": 3061,
      "Shortcut": 3062,
      "Kissing": 3063,
      "sleeve": 3064,
      "struc": 3065,
      "heaven": 3066,
      "hetstone": 3067,
      "Amelia": 3068,
      "Hifuaz": 3069,
      "Dolphin": 3070,
      "Sinana": 3071,
      "Sarahi": 3072,
      "Urushibara": 3073,
      "Chipao": 3074,
      "Shortcuts": 3075,
      "Bir": 3076,
      "Eri": 3077,
      "Hug": 3078,
      "Lu": 3079,
      "Low": 3080,
      "Ow": 3081,
      "Sal": 3082,
      "Sed": 3083,
      "Sof": 3084,
      "Sil": 3085,
      "Uta": 3086,
      "Und": 3087,
      "bal": 3088,
      "cho": 3089,
      "challenge": 3090,
      "py": 3091,
      "stu": 3092,
      "sne": 3093,
      "who": 3094,
      "椅子": 3095,
      "Arch": 3096,
      "anym": 3097,
      "suke": 3098,
      "row": 3099,
      "hell": 3100,
      "red": 3101,
      "iety": 3102,
      "gether": 3103,
      "tect": 3104,
      "swear": 3105,
      "und": 3106,
      "unks": 3107,
      "together": 3108,
      "advent": 3109,
      "Koyori": 3110,
      "Sport": 3111,
      "Star": 3112,
      "ittle": 3113,
      "Tsuku": 3114,
      "bbing": 3115,
      "trunks": 3116,
      "Squeeze": 3117,
      "come": 3118,
      "cleavage": 3119,
      "Great": 3120,
      "ffy": 3121,
      "board": 3122,
      "Stroke": 3123,
      "Holoadvent": 3124,
      "Uniform": 3125,
      "urtains": 3126,
      "render": 3127,
      "surrender": 3128,
      "help": 3129,
      "Priv": 3130,
      "Junko": 3131,
      "Sushi": 3132,
      "structure": 3133,
      "Bird": 3134,
      "Erika": 3135,
      "Silver": 3136,
      "anymore": 3137,
      "sukecchi": 3138,
      "Koyorisukecchi": 3139,
      "Sportswear": 3140,
      "3000": 3141,
      "Ban": 3142,
      "Curtains": 3143,
      "Do": 3144,
      "Earr": 3145,
      "Fe": 3146,
      "For": 3147,
      "Rac": 3148,
      "Show": 3149,
      "Tana": 3150,
      "Umika": 3151,
      "birthday": 3152,
      "cr": 3153,
      "col": 3154,
      "ex": 3155,
      "fun": 3156,
      "ful": 3157,
      "jime": 3158,
      "ove": 3159,
      "ph": 3160,
      "uku": 3161,
      "混合": 3162,
      "膝枕": 3163,
      "鍔広": 3164,
      "vey": 3165,
      "erc": 3166,
      "inside": 3167,
      "use": 3168,
      "ors": 3169,
      "mil": 3170,
      "aishi": 3171,
      "tent": 3172,
      "105": 3173,
      "akers": 3174,
      "earth": 3175,
      "ette": 3176,
      "ahua": 3177,
      "Mikai": 3178,
      "Hajime": 3179,
      "Shoulder": 3180,
      "Shiraishi": 3181,
      "ociety": 3182,
      "Used": 3183,
      "Trans": 3184,
      "forward": 3185,
      "Satoha": 3186,
      "Slouch": 3187,
      "Sleeve": 3188,
      "Snow2024": 3189,
      "appearance": 3190,
      "silhou": 3191,
      "jeans": 3192,
      "pixivSnow2024": 3193,
      "protect": 3194,
      "Asahua": 3195,
      "Clatter": 3196,
      "arms": 3197,
      "looks": 3198,
      "feeling": 3199,
      "Cecilia": 3200,
      "Adult": 3201,
      "Owl": 3202,
      "Sedami": 3203,
      "Utaha": 3204,
      "sneakers": 3205,
      "Earrings": 3206,
      "Tanaka": 3207,
      "Satohama": 3208,
      "Sleeveless": 3209,
      "silhouette": 3210,
      "Ai": 3211,
      "Cow": 3212,
      "Dai": 3213,
      "Hanu": 3214,
      "Imer": 3215,
      "Kive": 3216,
      "Key": 3217,
      "Meme": 3218,
      "Oto": 3219,
      "Open": 3220,
      "PO": 3221,
      "Par": 3222,
      "San": 3223,
      "SRT": 3224,
      "Tak": 3225,
      "_no": 3226,
      "br": 3227,
      "beg": 3228,
      "cc": 3229,
      "camisole": 3230,
      "fall": 3231,
      "fingers": 3232,
      "gray": 3233,
      "live": 3234,
      "ochi": 3235,
      "par": 3236,
      "press": 3237,
      "whetstone": 3238,
      "zen": 3239,
      "装甲": 3240,
      "eroro": 3241,
      "inART": 3242,
      "inning": 3243,
      "irr": 3244,
      "ost": 3245,
      "Shior": 3246,
      "Mil": 3247,
      "umid": 3248,
      "throat": 3249,
      "chuck": 3250,
      "ribb": 3251,
      "dovey": 3252,
      "masturbation": 3253,
      "Akashi": 3254,
      "here": 3255,
      "Grey": 3256,
      "Shiori_no": 3257,
      "Secret": 3258,
      "Waiting": 3259,
      "Gigi": 3260,
      "holoJustice": 3261,
      "Headboard": 3262,
      "Lili": 3263,
      "Under": 3264,
      "balance": 3265,
      "Tsukuyo": 3266,
      "colate": 3267,
      "Hanuma": 3268,
      "Imergreen": 3269,
      "Takane": 3270,
      "Shiori_novella": 3271,
      "Ap": 3272,
      "Azu": 3273,
      "Boob": 3274,
      "Chair": 3275,
      "Des": 3276,
      "Flu": 3277,
      "Fresh": 3278,
      "Gol": 3279,
      "Murin": 3280,
      "Off": 3281,
      "Pock": 3282,
      "So": 3283,
      "Seta": 3284,
      "Tights": 3285,
      "bow": 3286,
      "cre": 3287,
      "club": 3288,
      "eleg": 3289,
      "fet": 3290,
      "hoshi": 3291,
      "jack": 3292,
      "just": 3293,
      "ker": 3294,
      "ling": 3295,
      "lower": 3296,
      "pir": 3297,
      "plump": 3298,
      "ppy": 3299,
      "髪翠": 3300,
      "hick": 3301,
      "ination": 3302,
      "lls": 3303,
      "ire": 3304,
      "aling": 3305,
      "itals": 3306,
      "ond": 3307,
      "ato": 3308,
      "atch": 3309,
      "mic": 3310,
      "mimori": 3311,
      "Mimi": 3312,
      "ife": 3313,
      "stro": 3314,
      "emori": 3315,
      "Noel": 3316,
      "omiya": 3317,
      "Raora": 3318,
      "Choker": 3319,
      "Suit": 3320,
      "Full": 3321,
      "Chiaki": 3322,
      "Peko": 3323,
      "Crus": 3324,
      "Midnight": 3325,
      "Midpir": 3326,
      "feath": 3327,
      "Flow": 3328,
      "Guide": 3329,
      "pierc": 3330,
      "fore": 3331,
      "Yumehoshi": 3332,
      "Masochi": 3333,
      "llable": 3334,
      "Motomiya": 3335,
      "Push": 3336,
      "open": 3337,
      "ontrollable": 3338,
      "condoms": 3339,
      "genitals": 3340,
      "Ohno": 3341,
      "Uncontrollable": 3342,
      "work": 3343,
      "Salmon": 3344,
      "Private": 3345,
      "Cowgirl": 3346,
      "beginning": 3347,
      "ribbon": 3348,
      "Azur": 3349,
      "Fluffy": 3350,
      "Golden": 3351,
      "Pocky": 3352,
      "elegant": 3353,
      "fetish": 3354,
      "RaoraPanthera": 3355,
      "Midpiru": 3356,
      "feathered": 3357,
      "Masochist": 3358,
      "40000": 3359,
      "Cross": 3360,
      "Crotch": 3361,
      "Dog": 3362,
      "GK": 3363,
      "Hip": 3364,
      "Ju": 3365,
      "Job": 3366,
      "Lane": 3367,
      "Min": 3368,
      "Pin": 3369,
      "RK": 3370,
      "Sun": 3371,
      "TA": 3372,
      "Viv": 3373,
      "When": 3374,
      "Zion": 3375,
      "bus": 3376,
      "breast": 3377,
      "cer": 3378,
      "doro": 3379,
      "ffl": 3380,
      "gard": 3381,
      "hate": 3382,
      "lant": 3383,
      "mini": 3384,
      "over": 3385,
      "月月": 3386,
      "chill": 3387,
      "Arkn": 3388,
      "uscle": 3389,
      "ntal": 3390,
      "acon": 3391,
      "armpit": 3392,
      "anch": 3393,
      "itel": 3394,
      "itter": 3395,
      "ated": 3396,
      "rope": 3397,
      "end": 3398,
      "ening": 3399,
      "enap": 3400,
      "ssgard": 3401,
      "Bunnygirl": 3402,
      "ome": 3403,
      "Girls": 3404,
      "Tops": 3405,
      "Todoro": 3406,
      "Novel": 3407,
      "earing": 3408,
      "gao": 3409,
      "Straw": 3410,
      "very": 3411,
      "ideo": 3412,
      "urt": 3413,
      "epatch": 3414,
      "spurt": 3415,
      "Eyepatch": 3416,
      "Grab": 3417,
      "Glitter": 3418,
      "handjob": 3419,
      "Iracon": 3420,
      "Implant": 3421,
      "glare": 3422,
      "Branch": 3423,
      "Crouching": 3424,
      "views": 3425,
      "Irysart": 3426,
      "Shortening": 3427,
      "beautiful": 3428,
      "Warhammer40000": 3429,
      "much": 3430,
      "muffl": 3431,
      "simil": 3432,
      "Mental": 3433,
      "finitel": 3434,
      "Skirt": 3435,
      "Upper": 3436,
      "nude": 3437,
      "phone": 3438,
      "POV": 3439,
      "Sanzen": 3440,
      "brat": 3441,
      "Chairman": 3442,
      "jacket": 3443,
      "Crushed": 3444,
      "Masochistic": 3445,
      "Arknights": 3446,
      "Todoroki": 3447,
      "Implantation": 3448,
      "muffler": 3449,
      "similar": 3450,
      "finitely": 3451,
      "3p": 3452,
      "Ahe": 3453,
      "Ape": 3454,
      "Co": 3455,
      "Cloth": 3456,
      "God": 3457,
      "Hor": 3458,
      "Hatsu": 3459,
      "IN": 3460,
      "Kai": 3461,
      "Lay": 3462,
      "Mr": 3463,
      "Nell": 3464,
      "Nail": 3465,
      "Nels": 3466,
      "Pinc": 3467,
      "Porn": 3468,
      "Power": 3469,
      "Peroro": 3470,
      "Qu": 3471,
      "Res": 3472,
      "Society": 3473,
      "Tight": 3474,
      "Take": 3475,
      "Uru": 3476,
      "bro": 3477,
      "cream": 3478,
      "cloth": 3479,
      "dge": 3480,
      "ef": 3481,
      "form": 3482,
      "flop": 3483,
      "ffit": 3484,
      "fresh": 3485,
      "humid": 3486,
      "ier": 3487,
      "len": 3488,
      "lap": 3489,
      "little": 3490,
      "mom": 3491,
      "oomers": 3492,
      "pink": 3493,
      "pare": 3494,
      "sm": 3495,
      "sn": 3496,
      "sen": 3497,
      "sink": 3498,
      "tan": 3499,
      "time": 3500,
      "valentine": 3501,
      "wo": 3502,
      "wrink": 3503,
      "子子": 3504,
      "山海": 3505,
      "暖簾": 3506,
      "緑縁": 3507,
      "高級": 3508,
      "definitely": 3509,
      "incess": 3510,
      "lled": 3511,
      "Bun": 3512,
      "angel": 3513,
      "hem": 3514,
      "Holol": 3515,
      "ota": 3516,
      "Miku": 3517,
      "stant": 3518,
      "ged": 3519,
      "amel": 3520,
      "unch": 3521,
      "eter": 3522,
      "mpt": 3523,
      "bloomers": 3524,
      "Saia": 3525,
      "Cheek": 3526,
      "Sandw": 3527,
      "shin": 3528,
      "table": 3529,
      "dog": 3530,
      "inata": 3531,
      "aids": 3532,
      "myster": 3533,
      "Compe": 3534,
      "Akari": 3535,
      "Armpits": 3536,
      "ocal": 3537,
      "festival": 3538,
      "ummy": 3539,
      "Fly": 3540,
      "screen": 3541,
      "Nagusa": 3542,
      "Squirt": 3543,
      "fortable": 3544,
      "comfortable": 3545,
      "Genshin": 3546,
      "typing": 3547,
      "Loose": 3548,
      "legged": 3549,
      "eating": 3550,
      "Thong": 3551,
      "demonium": 3552,
      "series": 3553,
      "Braids": 3554,
      "BBC": 3555,
      "Miryo": 3556,
      "Pandemonium": 3557,
      "illing": 3558,
      "40k": 3559,
      "Uncle": 3560,
      "Plenap": 3561,
      "play": 3562,
      "chocolate": 3563,
      "Festival": 3564,
      "Transpare": 3565,
      "Apron": 3566,
      "piercing": 3567,
      "RKGK": 3568,
      "hates": 3569,
      "Ahegao": 3570,
      "Layered": 3571,
      "Nelson": 3572,
      "Pinch": 3573,
      "formation": 3574,
      "flops": 3575,
      "ffiti": 3576,
      "wrinkles": 3577,
      "mysterious": 3578,
      "Competit": 3579,
      "Plenaphates": 3580,
      "Transparent": 3581,
      "88": 3582,
      "AN": 3583,
      "Bon": 3584,
      "Baby": 3585,
      "Don": 3586,
      "Good": 3587,
      "Hem": 3588,
      "Hinata": 3589,
      "Jar": 3590,
      "Mon": 3591,
      "Muscle": 3592,
      "OR": 3593,
      "Ot": 3594,
      "Oku": 3595,
      "Ped": 3596,
      "Ram": 3597,
      "Rem": 3598,
      "Sho": 3599,
      "Simple": 3600,
      "TU": 3601,
      "born": 3602,
      "ction": 3603,
      "fer": 3604,
      "fou": 3605,
      "fle": 3606,
      "gaz": 3607,
      "knot": 3608,
      "maru": 3609,
      "mura": 3610,
      "nive": 3611,
      "nacle": 3612,
      "simple": 3613,
      "tor": 3614,
      "thick": 3615,
      "ual": 3616,
      "vice": 3617,
      "密結": 3618,
      "秘密結": 3619,
      "Aru": 3620,
      "ere": 3621,
      "orart": 3622,
      "its": 3623,
      "iver": 3624,
      "Hole": 3625,
      "remo": 3626,
      "ise": 3627,
      "Yuuka": 3628,
      "kubi": 3629,
      "omen": 3630,
      "sting": 3631,
      "104": 3632,
      "Maple": 3633,
      "Anim": 3634,
      "Raorart": 3635,
      "elo": 3636,
      "Fuwa": 3637,
      "bur": 3638,
      "Assjob": 3639,
      "ness": 3640,
      "Crim": 3641,
      "rubber": 3642,
      "Shota": 3643,
      "Death": 3644,
      "Deformation": 3645,
      "good": 3646,
      "100users": 3647,
      "riend": 3648,
      "ideba": 3649,
      "fect": 3650,
      "icking": 3651,
      "Instant": 3652,
      "Q102": 3653,
      "Sisterhood": 3654,
      "guin": 3655,
      "penguin": 3656,
      "Renge": 3657,
      "prompt": 3658,
      "Yakubi": 3659,
      "rawing": 3660,
      "Leotard": 3661,
      "panel": 3662,
      "abyssgard": 3663,
      "graffiti": 3664,
      "rsary": 3665,
      "marks": 3666,
      "bottom": 3667,
      "Pixiv": 3668,
      "student": 3669,
      "Racer": 3670,
      "Parody": 3671,
      "Milk": 3672,
      "Underwear": 3673,
      "stroy": 3674,
      "Pekoma": 3675,
      "Pinnacle": 3676,
      "Vivideba": 3677,
      "ropeway": 3678,
      "Glittering": 3679,
      "Horus": 3680,
      "Hatsune": 3681,
      "Powerful": 3682,
      "Urugura": 3683,
      "effect": 3684,
      "Sandwig": 3685,
      "Flyback": 3686,
      "Competition": 3687,
      "Pedicure": 3688,
      "Remove": 3689,
      "fours": 3690,
      "gaze": 3691,
      "niversary": 3692,
      "torture": 3693,
      "秘密結社": 3694,
      "!?": 3695,
      "15": 3696,
      "Ah": 3697,
      "Aim": 3698,
      "Bri": 3699,
      "Bike": 3700,
      "Coll": 3701,
      "Dy": 3702,
      "Doll": 3703,
      "Ess": 3704,
      "Fall": 3705,
      "Hy": 3706,
      "Har": 3707,
      "Mel": 3708,
      "Pa": 3709,
      "Pet": 3710,
      "Rat": 3711,
      "SE": 3712,
      "Sket": 3713,
      "Ty": 3714,
      "That": 3715,
      "Train": 3716,
      "Valley": 3717,
      "View": 3718,
      "Wall": 3719,
      "Woman": 3720,
      "_is": 3721,
      "ao": 3722,
      "dick": 3723,
      "drip": 3724,
      "diff": 3725,
      "ent": 3726,
      "ger": 3727,
      "gar": 3728,
      "got": 3729,
      "gun": 3730,
      "game": 3731,
      "gings": 3732,
      "hana": 3733,
      "halter": 3734,
      "iol": 3735,
      "illu": 3736,
      "jou": 3737,
      "ked": 3738,
      "mine": 3739,
      "making": 3740,
      "ns": 3741,
      "nice": 3742,
      "ople": 3743,
      "pt": 3744,
      "pos": 3745,
      "sho": 3746,
      "squ": 3747,
      "ting": 3748,
      "tty": 3749,
      "train": 3750,
      "ud": 3751,
      "vir": 3752,
      "vite": 3753,
      "v_is": 3754,
      "white": 3755,
      "wide": 3756,
      "wind": 3757,
      "will": 3758,
      "人力": 3759,
      "本家": 3760,
      "ｨｽ": 3761,
      "ｪﾐ": 3762,
      "ｽﾞ": 3763,
      "ﾃﾙ": 3764,
      "ﾃﾞ": 3765,
      "ﾅｽﾞ": 3766,
      "ﾝﾃﾞ": 3767,
      "him": 3768,
      "vest": 3769,
      "erus": 3770,
      "eration": 3771,
      "inal": 3772,
      "oud": 3773,
      "our": 3774,
      "tuation": 3775,
      "anime": 3776,
      "itar": 3777,
      "ital": 3778,
      "itede": 3779,
      "rec": 3780,
      "ree": 3781,
      "aying": 3782,
      "namic": 3783,
      "naked": 3784,
      "ied": 3785,
      "Shimura": 3786,
      "ssion": 3787,
      "Yuki": 3788,
      "met": 3789,
      "ets": 3790,
      "Kotama": 3791,
      "Angel": 3792,
      "Anniversary": 3793,
      "ela": 3794,
      "eld": 3795,
      "shift": 3796,
      "tern": 3797,
      "eye": 3798,
      "doors": 3799,
      "igation": 3800,
      "Spring": 3801,
      "Spilling": 3802,
      "going": 3803,
      "anging": 3804,
      "skin": 3805,
      "2025": 3806,
      "Fanart": 3807,
      "Look": 3808,
      "leggings": 3809,
      "inting": 3810,
      "Impact": 3811,
      "Eye_": 3812,
      "mmergreen": 3813,
      "Polka": 3814,
      "Polori": 3815,
      "Mysterious": 3816,
      "haved": 3817,
      "slug": 3818,
      "pixivsakura": 3819,
      "Healing": 3820,
      "underwear": 3821,
      "Warhammer40k": 3822,
      "Watsonamel": 3823,
      "mere": 3824,
      "Lovey": 3825,
      "situation": 3826,
      "bottle": 3827,
      "sakurafestival": 3828,
      "Forgot": 3829,
      "crash": 3830,
      "Desmom": 3831,
      "Salmon88": 3832,
      "armpits": 3833,
      "humidif": 3834,
      "Hololitede": 3835,
      "Jarble": 3836,
      "ORI": 3837,
      "Otose": 3838,
      "Pixivsakurafestival": 3839,
      "Dynamic": 3840,
      "Sketch": 3841,
      "Type": 3842,
      "dripping": 3843,
      "iolet": 3844,
      "virgin": 3845,
      "ｪﾐﾃﾙ": 3846,
      "ﾅｽﾞｪﾐﾃﾙ": 3847,
      "ﾝﾃﾞｨｽ": 3848,
      "vestigation": 3849,
      "pixivsakuraeffect": 3850,
      "Watsonamelia": 3851,
      "Desmomoi": 3852,
      "Hololitedev_is": 3853,
      "Pixivsakurafestival2024": 3854,
      "ﾅｽﾞｪﾐﾃﾙﾝﾃﾞｨｽ": 3855,
      "0mp": 3856,
      "Aki": 3857,
      "Agura": 3858,
      "Bare": 3859,
      "Can": 3860,
      "Cum": 3861,
      "Cup": 3862,
      "Camisole": 3863,
      "DI": 3864,
      "Dood": 3865,
      "Ed": 3866,
      "Horn": 3867,
      "If": 3868,
      "Ira": 3869,
      "Inc": 3870,
      "Ice": 3871,
      "Jo": 3872,
      "Kos": 3873,
      "Lace": 3874,
      "Lid": 3875,
      "Licking": 3876,
      "MT": 3877,
      "Mouth": 3878,
      "Mummy": 3879,
      "Nint": 3880,
      "Nurse": 3881,
      "Omaru": 3882,
      "Put": 3883,
      "Pie": 3884,
      "Ran": 3885,
      "R18": 3886,
      "Rob": 3887,
      "Shaved": 3888,
      "Taka": 3889,
      "There": 3890,
      "Video": 3891,
      "Yes": 3892,
      "_Bloodflame": 3893,
      "_Rose": 3894,
      "ax": 3895,
      "age": 3896,
      "ature": 3897,
      "baki": 3898,
      "base": 3899,
      "bed": 3900,
      "brus": 3901,
      "bination": 3902,
      "ces": 3903,
      "coco": 3904,
      "dong": 3905,
      "even": 3906,
      "fuku": 3907,
      "gg": 3908,
      "iai": 3909,
      "ibe": 3910,
      "iqu": 3911,
      "ju": 3912,
      "kg": 3913,
      "mirr": 3914,
      "nor": 3915,
      "rice": 3916,
      "sl": 3917,
      "she": 3918,
      "tra": 3919,
      "tall": 3920,
      "trap": 3921,
      "uma": 3922,
      "uous": 3923,
      "vil": 3924,
      "violet": 3925,
      "wr": 3926,
      "was": 3927,
      "wrist": 3928,
      "女郎": 3929,
      "妊娠": 3930,
      "強姦": 3931,
      "推奨": 3932,
      "整理": 3933,
      "花園": 3934,
      "erat": 3935,
      "inter": 3936,
      "invite": 3937,
      "inSketch": 3938,
      "user": 3939,
      "del": 3940,
      "deep": 3941,
      "arrow": 3942,
      "ano": 3943,
      "kibi": 3944,
      "kills": 3945,
      "ition": 3946,
      "sub": 3947,
      "super": 3948,
      "misc": 3949,
      "mission": 3950,
      "eness": 3951,
      "had": 3952,
      "happy": 3953,
      "ished": 3954,
      "ssy": 3955,
      "Yura": 3956,
      "Yuri": 3957,
      "imurin": 3958,
      "ameter": 3959,
      "Noerat": 3960,
      "mesh": 3961,
      "ety": 3962,
      "artphone": 3963,
      "alty": 3964,
      "sei": 3965,
      "ads": 3966,
      "shield": 3967,
      "Princess": 3968,
      "Having": 3969,
      "Legend": 3970,
      "been": 3971,
      "outdoors": 3972,
      "10000": 3973,
      "100kg": 3974,
      "oid": 3975,
      "Smartphone": 3976,
      "Footjob": 3977,
      "Momoka": 3978,
      "Mococo": 3979,
      "Wakaba": 3980,
      "Tsubaki": 3981,
      "topless": 3982,
      "160mp": 3983,
      "Onee": 3984,
      "ENArt": 3985,
      "Promisc": 3986,
      "diameter": 3987,
      "Inv": 3988,
      "Investigation": 3989,
      "combination": 3990,
      "Slits": 3991,
      "タグ整理": 3992,
      "ized": 3993,
      "hinders": 3994,
      "Thread": 3995,
      "Thank": 3996,
      "knees": 3997,
      "Ignor": 3998,
      "Rui": 3999,
      "Senpai": 4000,
      "turn": 4001,
      "service": 4002,
      "penalty": 4003,
      "silver": 4004,
      "Stroking": 4005,
      "Cloud": 4006,
      "hololiveENArt": 4007,
      "agull": 4008,
      "generation": 4009,
      "sleep": 4010,
      "world": 4011,
      "Ceciliai": 4012,
      "Gigimurin": 4013,
      "finished": 4014,
      "Elizabeth_Rose": 4015,
      "Windshield": 4016,
      "grabbing": 4017,
      "Cuteness": 4018,
      "Steamy": 4019,
      "mark": 4020,
      "Pixel": 4021,
      "Daifuku": 4022,
      "Otohana": 4023,
      "ShiorinSketch": 4024,
      "justice": 4025,
      "Flowers": 4026,
      "GenshinImpact": 4027,
      "Training": 4028,
      "differ": 4029,
      "illus": 4030,
      "ternal": 4031,
      "Doodles": 4032,
      "Iraku": 4033,
      "Koskibi": 4034,
      "Nintendo": 4035,
      "Takamine": 4036,
      "mirror": 4037,
      "Yuragi": 4038,
      "160mp0000": 4039,
      "Promiscuous": 4040,
      "タグ整理推奨": 4041,
      "Ignorance": 4042,
      "Ceciliaimmergreen": 4043,
      "Elizabeth_Rose_Bloodflame": 4044,
      "Koskibijou": 4045,
      "AL": 4046,
      "Aerus": 4047,
      "Ba": 4048,
      "Bat": 4049,
      "Col": 4050,
      "Cha": 4051,
      "Cap": 4052,
      "Dr": 4053,
      "DON": 4054,
      "Eden": 4055,
      "Face": 4056,
      "FAN": 4057,
      "Gr": 4058,
      "Gate": 4059,
      "Gold": 4060,
      "GON": 4061,
      "GIN": 4062,
      "II": 4063,
      "Kr": 4064,
      "Kob": 4065,
      "Link": 4066,
      "Lingerie": 4067,
      "MG": 4068,
      "Mos": 4069,
      "Numa": 4070,
      "OS": 4071,
      "Pai": 4072,
      "Pur": 4073,
      "Ponytail": 4074,
      "Rus": 4075,
      "River": 4076,
      "Sol": 4077,
      "Sku": 4078,
      "Siz": 4079,
      "Tick": 4080,
      "Tearing": 4081,
      "Ushi": 4082,
      "Ver": 4083,
      "Wow": 4084,
      "Waist": 4085,
      "Wife": 4086,
      "Winter": 4087,
      "_illustration": 4088,
      "_Horus": 4089,
      "bear": 4090,
      "bob": 4091,
      "bag": 4092,
      "box": 4093,
      "cted": 4094,
      "fu": 4095,
      "finger": 4096,
      "ige": 4097,
      "iation": 4098,
      "kiri": 4099,
      "kirt": 4100,
      "lin": 4101,
      "ms": 4102,
      "ming": 4103,
      "men": 4104,
      "memori": 4105,
      "oo": 4106,
      "pu": 4107,
      "pic": 4108,
      "pot": 4109,
      "pool": 4110,
      "show": 4111,
      "sister": 4112,
      "shave": 4113,
      "sized": 4114,
      "tar": 4115,
      "tle": 4116,
      "thigh": 4117,
      "uki": 4118,
      "ubus": 4119,
      "wet": 4120,
      "冬服": 4121,
      "卒業": 4122,
      "旗袍": 4123,
      "邑子": 4124,
      "luck": 4125,
      "hide": 4126,
      "Blue_": 4127,
      "des": 4128,
      "erst": 4129,
      "ough": 4130,
      "ntle": 4131,
      "aration": 4132,
      "asy": 4133,
      "ality": 4134,
      "ited": 4135,
      "itching": 4136,
      "itated": 4137,
      "suck": 4138,
      "mix": 4139,
      "YouTuber100users": 4140,
      "eni": 4141,
      "enka": 4142,
      "ences": 4143,
      "osis": 4144,
      "Hold": 4145,
      "rei": 4146,
      "refle": 4147,
      "resting": 4148,
      "ication": 4149,
      "iskirt": 4150,
      "kudate": 4151,
      "Mimori": 4152,
      "gentle": 4153,
      "tea": 4154,
      "teeth": 4155,
      "sweat": 4156,
      "unn": 4157,
      "nova": 4158,
      "these": 4159,
      "Kazrei": 4160,
      "shining": 4161,
      "Sucking": 4162,
      "eyball": 4163,
      "mop": 4164,
      "ipper": 4165,
      "painting": 4166,
      "Switching": 4167,
      "negl": 4168,
      "saint": 4169,
      "of_Horus": 4170,
      "rub": 4171,
      "Seagull": 4172,
      "shuki": 4173,
      "perver": 4174,
      "apse": 4175,
      "Reco": 4176,
      "lothing": 4177,
      "Momop": 4178,
      "Akutan": 4179,
      "ociation": 4180,
      "feeding": 4181,
      "Floral": 4182,
      "fucking": 4183,
      "anger": 4184,
      "バーチャルYouTuber100users": 4185,
      "Trenka": 4186,
      "orner": 4187,
      "commission": 4188,
      "Breastfeeding": 4189,
      "Massage": 4190,
      "character_illustration": 4191,
      "Iris": 4192,
      "ollow": 4193,
      "olleyball": 4194,
      "Rubbing": 4195,
      "confa": 4196,
      "claration": 4197,
      "ctive": 4198,
      "Speed": 4199,
      "elzbrus": 4200,
      "Renga": 4201,
      "Supernova": 4202,
      "fanart": 4203,
      "coat": 4204,
      "know": 4205,
      "External": 4206,
      "Play": 4207,
      "hologa": 4208,
      "Sky": 4209,
      "Upside": 4210,
      "Pull": 4211,
      "Hamidel": 4212,
      "Luna": 4213,
      "underst": 4214,
      "tentacle": 4215,
      "Daishuki": 4216,
      "ccubus": 4217,
      "irritated": 4218,
      "Soaking": 4219,
      "creature": 4220,
      "Miniskirt": 4221,
      "TAGON": 4222,
      "certain": 4223,
      "Resort": 4224,
      "laplus_artdesu": 4225,
      "sense": 4226,
      "Shokora": 4227,
      "TUSE": 4228,
      "bottomless": 4229,
      "Harem": 4230,
      "shoes": 4231,
      "Eye_of_Horus": 4232,
      "ORIGIN": 4233,
      "Barefoot": 4234,
      "sheets": 4235,
      "subconfa": 4236,
      "Cloudy": 4237,
      "ALTAGON": 4238,
      "Aeruseni": 4239,
      "Baelzbrus": 4240,
      "DONTUSE": 4241,
      "FANART": 4242,
      "Krsubconfa": 4243,
      "Numakura": 4244,
      "Skull": 4245,
      "Size": 4246,
      "Tickling": 4247,
      "igee": 4248,
      "kirio": 4249,
      "memories": 4250,
      "reflected": 4251,
      "negligee": 4252,
      "pervert": 4253,
      "Recovery": 4254,
      "Momopuku": 4255,
      "バーチャルYouTuber100users入り": 4256,
      "Hamidelta": 4257,
      "ORIGINALTAGON": 4258,
      "Baelzbrush": 4259,
      "DONTUSEORIGINALTAGON": 4260,
      "DONTUSEORIGINALTAGONFANART": 4261,
      "17": 4262,
      "24": 4263,
      "8K": 4264,
      "98K": 4265,
      "All": 4266,
      "Baked": 4267,
      "Belo": 4268,
      "Car": 4269,
      "Cunn": 4270,
      "Dong": 4271,
      "Drawing": 4272,
      "ES": 4273,
      "ET": 4274,
      "Easy": 4275,
      "Fle": 4276,
      "Fine": 4277,
      "Food": 4278,
      "Friend": 4279,
      "Gar": 4280,
      "Give": 4281,
      "Gam": 4282,
      "Gun": 4283,
      "Hanging": 4284,
      "Jac": 4285,
      "Jap": 4286,
      "Ky": 4287,
      "Let": 4288,
      "Mer": 4289,
      "Make": 4290,
      "NT": 4291,
      "Out": 4292,
      "Oup": 4293,
      "PS": 4294,
      "Person": 4295,
      "Ro": 4296,
      "Rir": 4297,
      "Roll": 4298,
      "Sit": 4299,
      "Sna": 4300,
      "Simp": 4301,
      "SMG": 4302,
      "Tie": 4303,
      "Tho": 4304,
      "Tap": 4305,
      "Toro": 4306,
      "Two": 4307,
      "Vocal": 4308,
      "Wing": 4309,
      "Whis": 4310,
      "Women": 4311,
      "Zi": 4312,
      "Zipper": 4313,
      "_tar": 4314,
      "av": 4315,
      "aw": 4316,
      "bia": 4317,
      "ca": 4318,
      "cy": 4319,
      "cum": 4320,
      "cake": 4321,
      "curtain": 4322,
      "corner": 4323,
      "du": 4324,
      "dro": 4325,
      "dot": 4326,
      "die": 4327,
      "drew": 4328,
      "eck": 4329,
      "eah": 4330,
      "ece": 4331,
      "fr": 4332,
      "fw": 4333,
      "gy": 4334,
      "has": 4335,
      "mr": 4336,
      "mob": 4337,
      "more": 4338,
      "most": 4339,
      "pus": 4340,
      "pick": 4341,
      "saying": 4342,
      "twin": 4343,
      "two": 4344,
      "ui": 4345,
      "vag": 4346,
      "vals": 4347,
      "we": 4348,
      "yoshi": 4349,
      "zi": 4350,
      "zing": 4351,
      "不敵": 4352,
      "乳上": 4353,
      "動車": 4354,
      "性職": 4355,
      "自動車": 4356,
      "隠姦": 4357,
      "ludes": 4358,
      "child": 4359,
      "eral": 4360,
      "usand": 4361,
      "destroy": 4362,
      "declaration": 4363,
      "incloth": 4364,
      "oul": 4365,
      "Bulled": 4366,
      "ars": 4367,
      "turt": 4368,
      "orin": 4369,
      "kia": 4370,
      "onde": 4371,
      "summer": 4372,
      "roll": 4373,
      "ingus": 4374,
      "ingshot": 4375,
      "ene": 4376,
      "ennu": 4377,
      "oss": 4378,
      "requ": 4379,
      "icles": 4380,
      "kobe": 4381,
      "kochallenge": 4382,
      "haven": 4383,
      "isite": 4384,
      "Yum": 4385,
      "Yuko": 4386,
      "ifle": 4387,
      "ralls": 4388,
      "ramen": 4389,
      "stand": 4390,
      "store": 4391,
      "gement": 4392,
      "tears": 4393,
      "103": 4394,
      "ikart": 4395,
      "une": 4396,
      "anagement": 4397,
      "walled": 4398,
      "ederal": 4399,
      "ething": 4400,
      "thud": 4401,
      "blous": 4402,
      "sent": 4403,
      "Sui": 4404,
      "Suva": 4405,
      "chu": 4406,
      "Scatter": 4407,
      "gag": 4408,
      "Chibi": 4409,
      "Child": 4410,
      "mocc": 4411,
      "rilled": 4412,
      "doll": 4413,
      "zui": 4414,
      "zuku": 4415,
      "bull": 4416,
      "Kar98K": 4417,
      "Association": 4418,
      "youth": 4419,
      "Happy": 4420,
      "Switch": 4421,
      "nection": 4422,
      "Spank": 4423,
      "egirl": 4424,
      "Pee": 4425,
      "Beast": 4426,
      "Before": 4427,
      "Cry": 4428,
      "Hiding": 4429,
      "brain": 4430,
      "anese": 4431,
      "Momorin": 4432,
      "quisite": 4433,
      "Himemori": 4434,
      "Natsuyoshi": 4435,
      "umbre": 4436,
      "lovey": 4437,
      "Kaela": 4438,
      "Kakudate": 4439,
      "inovella": 4440,
      "ildo": 4441,
      "ilingus": 4442,
      "something": 4443,
      "science": 4444,
      "piano": 4445,
      "ways": 4446,
      "cheek": 4447,
      "venience": 4448,
      "Pool": 4449,
      "Pops": 4450,
      "Pokobe": 4451,
      "Slingshot": 4452,
      "Kuzuku": 4453,
      "Mask": 4454,
      "clear": 4455,
      "Without": 4456,
      "Akamop": 4457,
      "Iron": 4458,
      "opard": 4459,
      "connection": 4460,
      "present": 4461,
      "guitar": 4462,
      "Semen": 4463,
      "headband": 4464,
      "alking": 4465,
      "pixivrain": 4466,
      "kissing": 4467,
      "Dreamy": 4468,
      "shaking": 4469,
      "Cosplay": 4470,
      "Asmr": 4471,
      "Treaty": 4472,
      "cover": 4473,
      "melon": 4474,
      "Armor": 4475,
      "Exquisite": 4476,
      "Skeban": 4477,
      "faun": 4478,
      "vels": 4479,
      "print": 4480,
      "pract": 4481,
      "Firework": 4482,
      "undred": 4483,
      "Racing": 4484,
      "Otogi": 4485,
      "Shiorinovella": 4486,
      "irect": 4487,
      "Juri": 4488,
      "Queen": 4489,
      "brother": 4490,
      "leneck": 4491,
      "Monster": 4492,
      "Okuro": 4493,
      "Ramune": 4494,
      "thicker": 4495,
      "remove": 4496,
      "Bridge": 4497,
      "Essence": 4498,
      "Fallen": 4499,
      "winding": 4500,
      "record": 4501,
      "Yukimi": 4502,
      "humidifier": 4503,
      "Includes": 4504,
      "Piece": 4505,
      "Robo": 4506,
      "travels": 4507,
      "wrong": 4508,
      "Mococoabyssgard": 4509,
      "turned": 4510,
      "differences": 4511,
      "Battle": 4512,
      "Ushimaki": 4513,
      "potato": 4514,
      "angerous": 4515,
      "Skullman": 4516,
      "Belochu": 4517,
      "Cunnilingus": 4518,
      "Dongtan": 4519,
      "Fleece": 4520,
      "Finefaun": 4521,
      "Garden": 4522,
      "Jackochallenge": 4523,
      "Japanese": 4524,
      "Oupai": 4525,
      "Ririkart": 4526,
      "Snap": 4527,
      "Simply": 4528,
      "Thousand": 4529,
      "Vocaloid": 4530,
      "Whisper": 4531,
      "Zizui": 4532,
      "frank": 4533,
      "vaginal": 4534,
      "valskia": 4535,
      "性職者": 4536,
      "destroyed": 4537,
      "turtleneck": 4538,
      "ennui": 4539,
      "blouse": 4540,
      "moccocal": 4541,
      "Spanking": 4542,
      "umbrella": 4543,
      "Popsicles": 4544,
      "pixivrain2024": 4545,
      "1st": 4546,
      "46": 4547,
      "Ant": 4548,
      "Ayu": 4549,
      "Blu": 4550,
      "Bod": 4551,
      "CL": 4552,
      "Cor": 4553,
      "Call": 4554,
      "Cip": 4555,
      "C105": 4556,
      "Dir": 4557,
      "Dra": 4558,
      "Dance": 4559,
      "Drink": 4560,
      "Dome": 4561,
      "Dangerous": 4562,
      "Eng": 4563,
      "Epic": 4564,
      "Egy": 4565,
      "Fina": 4566,
      "Fake": 4567,
      "Fore": 4568,
      "Federal": 4569,
      "Frilled": 4570,
      "Got": 4571,
      "Gori": 4572,
      "Group": 4573,
      "Gray": 4574,
      "Han": 4575,
      "HIV": 4576,
      "Illust": 4577,
      "Ind": 4578,
      "JC": 4579,
      "Kose": 4580,
      "Luck": 4581,
      "Lum": 4582,
      "Little": 4583,
      "Lunch": 4584,
      "MC": 4585,
      "Mac": 4586,
      "Meat": 4587,
      "OP": 4588,
      "Pat": 4589,
      "Pre": 4590,
      "Ple": 4591,
      "Past": 4592,
      "Pill": 4593,
      "Pret": 4594,
      "Phim": 4595,
      "PET": 4596,
      "Rock": 4597,
      "Race": 4598,
      "Slu": 4599,
      "Sha": 4600,
      "Sno": 4601,
      "Tip": 4602,
      "TMT": 4603,
      "Velo": 4604,
      "Wip": 4605,
      "Wap": 4606,
      "Wrist": 4607,
      "Wapp": 4608,
      "Witch": 4609,
      "Yo": 4610,
      "Yasu": 4611,
      "Yeah": 4612,
      "Zun": 4613,
      "_I": 4614,
      "_f": 4615,
      "_breasts": 4616,
      "_bia": 4617,
      "_46": 4618,
      "ave": 4619,
      "aic": 4620,
      "ault": 4621,
      "bs": 4622,
      "ben": 4623,
      "bino": 4624,
      "cha": 4625,
      "cry": 4626,
      "dis": 4627,
      "dream": 4628,
      "draw": 4629,
      "dimple": 4630,
      "drink": 4631,
      "drawing": 4632,
      "each": 4633,
      "fire": 4634,
      "friend": 4635,
      "hal": 4636,
      "hard": 4637,
      "hundred": 4638,
      "iy": 4639,
      "illust": 4640,
      "ioc": 4641,
      "imika": 4642,
      "kemon": 4643,
      "lf": 4644,
      "lose": 4645,
      "lip": 4646,
      "lift": 4647,
      "life": 4648,
      "mat": 4649,
      "mak": 4650,
      "mbur": 4651,
      "management": 4652,
      "nine": 4653,
      "olu": 4654,
      "oper": 4655,
      "plu": 4656,
      "pinc": 4657,
      "pig": 4658,
      "pid": 4659,
      "power": 4660,
      "pads": 4661,
      "rust": 4662,
      "rifle": 4663,
      "sand": 4664,
      "society": 4665,
      "tight": 4666,
      "trou": 4667,
      "thing": 4668,
      "touch": 4669,
      "urugi": 4670,
      "val": 4671,
      "viv": 4672,
      "video": 4673,
      "volleyball": 4674,
      "volu": 4675,
      "wy": 4676,
      "wolf": 4677,
      "wrap": 4678,
      "years": 4679,
      "ろ手": 4680,
      "主観": 4681,
      "依頼": 4682,
      "卓上": 4683,
      "姻届": 4684,
      "幼女": 4685,
      "後ろ手": 4686,
      "明日": 4687,
      "有趣": 4688,
      "正座": 4689,
      "獣姦": 4690,
      "緑髪": 4691,
      "hic": 4692,
      "chinose": 4693,
      "era": 4694,
      "inde": 4695,
      "desk": 4696,
      "acha": 4697,
      "ArchivesThe": 4698,
      "aron": 4699,
      "arch": 4700,
      "asol": 4701,
      "asaki": 4702,
      "asket": 4703,
      "ange": 4704,
      "anue": 4705,
      "alread": 4706,
      "ki_bia": 4707,
      "itas": 4708,
      "itor": 4709,
      "onshi": 4710,
      "ator": 4711,
      "sucking": 4712,
      "suns": 4713,
      "room": 4714,
      "rep": 4715,
      "reon": 4716,
      "5000user": 4717,
      "koo": 4718,
      "hambur": 4719,
      "other": 4720,
      "Shiny": 4721,
      "Shibase": 4722,
      "home": 4723,
      "leave": 4724,
      "rage": 4725,
      "eller": 4726,
      "stret": 4727,
      "get": 4728,
      "tem": 4729,
      "amori": 4730,
      "ample": 4731,
      "Rider": 4732,
      "Ichimob": 4733,
      "Mari": 4734,
      "Mary": 4735,
      "Sorasaki": 4736,
      "Toes": 4737,
      "ally": 4738,
      "Mabino": 4739,
      "messy": 4740,
      "eda": 4741,
      "Kotatsu": 4742,
      "omim": 4743,
      "though": 4744,
      "blonde": 4745,
      "second": 4746,
      "self": 4747,
      "shiroko": 4748,
      "Oni": 4749,
      "Chiax": 4750,
      "round": 4751,
      "Pris": 4752,
      "ineer": 4753,
      "Sweater": 4754,
      "new": 4755,
      "Spid": 4756,
      "Hanakoha": 4757,
      "People": 4758,
      "Beer": 4759,
      "cept": 4760,
      "ruit": 4761,
      "Destroy": 4762,
      "Stick": 4763,
      "shorts": 4764,
      "ape": 4765,
      "Shiranue": 4766,
      "Smell": 4767,
      "vers": 4768,
      "Tsuka": 4769,
      "bluearchivefanart": 4770,
      "people": 4771,
      "urine": 4772,
      "Flirt": 4773,
      "scape": 4774,
      "spot": 4775,
      "trans": 4776,
      "tried": 4777,
      "ang_46": 4778,
      "istence": 4779,
      "sexual": 4780,
      "Nagan": 4781,
      "Nagimika": 4782,
      "Sigre": 4783,
      "Bandou": 4784,
      "Micah": 4785,
      "upper": 4786,
      "Akaibe": 4787,
      "handle": 4788,
      "bae": 4789,
      "Throw": 4790,
      "sideways": 4791,
      "donut": 4792,
      "concept": 4793,
      "glow": 4794,
      "glasses": 4795,
      "preci": 4796,
      "guy": 4797,
      "penis": 4798,
      "Nipless": 4799,
      "Fuwawaabyssgard": 4800,
      "Bigboobs": 4801,
      "Wild": 4802,
      "flowers": 4803,
      "Ninety": 4804,
      "Dark": 4805,
      "Bodysuit": 4806,
      "beauties": 4807,
      "Comiket": 4808,
      "digital": 4809,
      "Gemini": 4810,
      "ried": 4811,
      "As_tar": 4812,
      "Stroll": 4813,
      "Asahina": 4814,
      "Bokoo": 4815,
      "Wa2000": 4816,
      "circum": 4817,
      "raybae": 4818,
      "looking": 4819,
      "fait": 4820,
      "Digital": 4821,
      "Lily": 4822,
      "Sexy": 4823,
      "Convenience": 4824,
      "Earpick": 4825,
      "Isn": 4826,
      "Puh": 4827,
      "Hamiman": 4828,
      "sleeves": 4829,
      "Dozing": 4830,
      "expl": 4831,
      "existence": 4832,
      "parfait": 4833,
      "Flowglow": 4834,
      "Jump": 4835,
      "Minori": 4836,
      "lens": 4837,
      "smell": 4838,
      "snow": 4839,
      "snug": 4840,
      "Bonp": 4841,
      "Okubo": 4842,
      "Ramen": 4843,
      "ference": 4844,
      "removal": 4845,
      "Animation": 4846,
      "Animegirl": 4847,
      "Removed": 4848,
      "Collapse": 4849,
      "Petting": 4850,
      "nsfw": 4851,
      "ptian": 4852,
      "position": 4853,
      "DID": 4854,
      "evening": 4855,
      "ique": 4856,
      "Invited": 4857,
      "Colors": 4858,
      "Captain": 4859,
      "Mosin": 4860,
      "Purple": 4861,
      "Rush": 4862,
      "Soles": 4863,
      "beard": 4864,
      "Blue_Archive": 4865,
      "understand": 4866,
      "Kyonshi": 4867,
      "Mermaid": 4868,
      "Makeup": 4869,
      "Road": 4870,
      "Sittem": 4871,
      "Tapioc": 4872,
      "pussy": 4873,
      "Yumiri": 4874,
      "practise": 4875,
      "Bodhi": 4876,
      "Callillust": 4877,
      "Cipao": 4878,
      "Dirty": 4879,
      "Engineer": 4880,
      "Egyptian": 4881,
      "Forehead": 4882,
      "Gothic": 4883,
      "Hanamori": 4884,
      "Illustraybae": 4885,
      "Koseki_bia": 4886,
      "Lucky": 4887,
      "Macaron": 4888,
      "Patreon": 4889,
      "Pretty": 4890,
      "Phimosis": 4891,
      "Snoot": 4892,
      "Wipe": 4893,
      "Wappi": 4894,
      "Wappy": 4895,
      "Zunming": 4896,
      "_fang_46": 4897,
      "chaos": 4898,
      "dreams": 4899,
      "dimples": 4900,
      "kemonomim": 4901,
      "lips": 4902,
      "pinched": 4903,
      "trouble": 4904,
      "vivi": 4905,
      "volution": 4906,
      "依頼絵": 4907,
      "ArchivesTheAnimation": 4908,
      "asketball": 4909,
      "already": 4910,
      "sunset": 4911,
      "hamburger": 4912,
      "Shinya": 4913,
      "Shibaseki": 4914,
      "rageous": 4915,
      "Ichimobu": 4916,
      "Spider": 4917,
      "Throwing": 4918,
      "precious": 4919,
      "circumference": 4920,
      "Tapioca": 4921,
      "Koseki_biau": 4922,
      "_fang_465": 4923,
      "()": 4924,
      "14": 4925,
      "200": 4926,
      "35": 4927,
      "3r": 4928,
      "5th": 4929,
      "AH": 4930,
      "Ako": 4931,
      "Abs": 4932,
      "Bi": 4933,
      "Bin": 4934,
      "Bre": 4935,
      "Bob": 4936,
      "Biting": 4937,
      "Bearing": 4938,
      "Cal": 4939,
      "Cand": 4940,
      "Cam": 4941,
      "Card": 4942,
      "Clothing": 4943,
      "Dro": 4944,
      "Date": 4945,
      "Dick": 4946,
      "Draw": 4947,
      "Dildo": 4948,
      "ER": 4949,
      "Emp": 4950,
      "Ebuki": 4951,
      "Ellen": 4952,
      "End": 4953,
      "Emer": 4954,
      "Evolution": 4955,
      "Fa": 4956,
      "Fra": 4957,
      "Fate": 4958,
      "Feet": 4959,
      "Found": 4960,
      "Felt": 4961,
      "Fingers": 4962,
      "Gi": 4963,
      "Get": 4964,
      "Gour": 4965,
      "Gacha": 4966,
      "Hu": 4967,
      "Hon": 4968,
      "Humid": 4969,
      "HIN": 4970,
      "Heter": 4971,
      "HOS": 4972,
      "Hollow": 4973,
      "Ito": 4974,
      "Immer": 4975,
      "IPS": 4976,
      "IHOS": 4977,
      "Je": 4978,
      "Joe": 4979,
      "King": 4980,
      "Kam": 4981,
      "Kana": 4982,
      "Keroro": 4983,
      "KAN": 4984,
      "Line": 4985,
      "Lemon": 4986,
      "Lower": 4987,
      "Mc": 4988,
      "Mori": 4989,
      "Might": 4990,
      "Mini": 4991,
      "Nem": 4992,
      "Nap": 4993,
      "Nene": 4994,
      "Ove": 4995,
      "Oll": 4996,
      "Ora": 4997,
      "Oeda": 4998,
      "Pi": 4999,
      "Pse": 5000,
      "Port": 5001,
      "Pont": 5002,
      "Pure": 5003,
      "Pale": 5004,
      "Prec": 5005,
      "QOS": 5006,
      "Ryu": 5007,
      "RES": 5008,
      "SW": 5009,
      "Ski": 5010,
      "Sto": 5011,
      "Stain": 5012,
      "Some": 5013,
      "Ten": 5014,
      "Tag": 5015,
      "Thick": 5016,
      "Teller": 5017,
      "Uki": 5018,
      "Vac": 5019,
      "Vibe": 5020,
      "Wh": 5021,
      "Wal": 5022,
      "Whetstone": 5023,
      "Yan": 5024,
      "Yaki": 5025,
      "Yag": 5026,
      "ZEN": 5027,
      "ZON": 5028,
      "_de": 5029,
      "_ut": 5030,
      "ako": 5031,
      "able": 5032,
      "after": 5033,
      "bac": 5034,
      "bor": 5035,
      "ban": 5036,
      "bic": 5037,
      "bumi": 5038,
      "bet": 5039,
      "bel": 5040,
      "bby": 5041,
      "bang": 5042,
      "basketball": 5043,
      "car": 5044,
      "cast": 5045,
      "cock": 5046,
      "clothing": 5047,
      "da": 5048,
      "dar": 5049,
      "dom": 5050,
      "did": 5051,
      "dance": 5052,
      "every": 5053,
      "fir": 5054,
      "fish": 5055,
      "free": 5056,
      "follow": 5057,
      "fruit": 5058,
      "gr": 5059,
      "gaki": 5060,
      "gion": 5061,
      "gang": 5062,
      "hot": 5063,
      "hold": 5064,
      "izumi": 5065,
      "kus": 5066,
      "kzuka": 5067,
      "lie": 5068,
      "last": 5069,
      "lau": 5070,
      "liqu": 5071,
      "mout": 5072,
      "mama": 5073,
      "marr": 5074,
      "mination": 5075,
      "mummy": 5076,
      "ni": 5077,
      "nai": 5078,
      "nut": 5079,
      "nail": 5080,
      "ney": 5081,
      "nsei": 5082,
      "oin": 5083,
      "pica": 5084,
      "phen": 5085,
      "pico": 5086,
      "rac": 5087,
      "sailor": 5088,
      "sake": 5089,
      "sian": 5090,
      "slap": 5091,
      "tical": 5092,
      "udo": 5093,
      "uum": 5094,
      "whi": 5095,
      "what": 5096,
      "wish": 5097,
      "where": 5098,
      "walking": 5099,
      "yaki": 5100,
      "yandere": 5101,
      "zer": 5102,
      "学生": 5103,
      "白袋": 5104,
      "自慰": 5105,
      "蹲踞": 5106,
      "luce": 5107,
      "Aris": 5108,
      "Arous": 5109,
      "eru": 5110,
      "erot": 5111,
      "erated": 5112,
      "ins": 5113,
      "inner": 5114,
      "usual": 5115,
      "devil": 5116,
      "ntr": 5117,
      "acy": 5118,
      "Buried": 5119,
      "Bulla": 5120,
      "irm": 5121,
      "irom": 5122,
      "ired": 5123,
      "arf": 5124,
      "arge": 5125,
      "arche": 5126,
      "around": 5127,
      "asirom": 5128,
      "tub": 5129,
      "tum": 5130,
      "tuning": 5131,
      "tuurugi": 5132,
      "orange": 5133,
      "anal": 5134,
      "anation": 5135,
      "oning": 5136,
      "ones": 5137,
      "only": 5138,
      "suna": 5139,
      "succubus": 5140,
      "Virgin": 5141,
      "Tune": 5142,
      "hes": 5143,
      "heel": 5144,
      "restra": 5145,
      "ich": 5146,
      "icon": 5147,
      "is_ut": 5148,
      "ayashi": 5149,
      "otto": 5150,
      "Yuel": 5151,
      "imax": 5152,
      "hollow": 5153,
      "ifrice": 5154,
      "Asunai": 5155,
      "raft": 5156,
      "ragon": 5157,
      "ella": 5158,
      "teacher": 5159,
      "amin": 5160,
      "amaki": 5161,
      "unk": 5162,
      "anaeru": 5163,
      "akki": 5164,
      "today": 5165,
      "Mark": 5166,
      "Noise": 5167,
      "earl": 5168,
      "earch": 5169,
      "achy": 5170,
      "Mag": 5171,
      "etch": 5172,
      "White_fang_465": 5173,
      "Albu": 5174,
      "Alona": 5175,
      "thank": 5176,
      "Rape": 5177,
      "Chl": 5178,
      "Chocolate": 5179,
      "ady": 5180,
      "Sugar": 5181,
      "Succubus": 5182,
      "eyond": 5183,
      "charm": 5184,
      "Fubumi": 5185,
      "Scent": 5186,
      "gain": 5187,
      "rio": 5188,
      "doka": 5189,
      "dosuna": 5190,
      "Kovalskia": 5191,
      "Stupid": 5192,
      "igan": 5193,
      "Kirby": 5194,
      "Blouse": 5195,
      "maple": 5196,
      "Beads": 5197,
      "Cats": 5198,
      "ofif": 5199,
      "celebration": 5200,
      "Dec": 5201,
      "Deka": 5202,
      "Deity": 5203,
      "Devil": 5204,
      "before": 5205,
      "Starr": 5206,
      "should": 5207,
      "outrageous": 5208,
      "aphim": 5209,
      "Reach": 5210,
      "Refle": 5211,
      "Reinde": 5212,
      "Momo": 5213,
      "Mouse": 5214,
      "Wakame": 5215,
      "Amamin": 5216,
      "pent": 5217,
      "Abydosuna": 5218,
      "ague": 5219,
      "quality": 5220,
      "Himeki": 5221,
      "Watermelon": 5222,
      "scarf": 5223,
      "spun": 5224,
      "spread": 5225,
      "machine": 5226,
      "assment": 5227,
      "cheongs": 5228,
      "tsukirio": 5229,
      "Sakata": 5230,
      "Youtuber1000users": 5231,
      "Squid": 5232,
      "Square": 5233,
      "rotor": 5234,
      "loppy": 5235,
      "Gramat": 5236,
      "skirm": 5237,
      "sketch": 5238,
      "Slap": 5239,
      "iva": 5240,
      "Series": 5241,
      "Serious": 5242,
      "Seraphim": 5243,
      "2023": 5244,
      "Masao": 5245,
      "Generated": 5246,
      "clean": 5247,
      "gination": 5248,
      "harassment": 5249,
      "Lover": 5250,
      "Loincloth": 5251,
      "many": 5252,
      "heroin": 5253,
      "Chupa": 5254,
      "Chubby": 5255,
      "Glass": 5256,
      "Disciplin": 5257,
      "Akayandere": 5258,
      "bage": 5259,
      "Halal": 5260,
      "Mother": 5261,
      "Shigureui": 5262,
      "Thum": 5263,
      "Throat": 5264,
      "Three": 5265,
      "Gehenasirom": 5266,
      "pixel": 5267,
      "Sensa": 5268,
      "Sensei": 5269,
      "Sennsei": 5270,
      "glans": 5271,
      "climax": 5272,
      "AINT": 5273,
      "footprint": 5274,
      "pretty": 5275,
      "Ramia": 5276,
      "Brachy": 5277,
      "Shizuki": 5278,
      "headph": 5279,
      "headphone": 5280,
      "Rengo": 5281,
      "Miss": 5282,
      "tied": 5283,
      "pole": 5284,
      "soon": 5285,
      "dentifrice": 5286,
      "boo": 5287,
      "laced": 5288,
      "Stripped": 5289,
      "gonna": 5290,
      "melt": 5291,
      "Tomo": 5292,
      "gency": 5293,
      "Intere": 5294,
      "known": 5295,
      "Bloodflameeart": 5296,
      "Leopard": 5297,
      "Messy": 5298,
      "Bangboo": 5299,
      "Bathtub": 5300,
      "Nekukzuka": 5301,
      "Headstand": 5302,
      "headed": 5303,
      "Stealing": 5304,
      "Stems": 5305,
      "princess": 5306,
      "Bookmarks": 5307,
      "Ears": 5308,
      "Puffy": 5309,
      "Saliva": 5310,
      "undam": 5311,
      "Privacy": 5312,
      "milk": 5313,
      "Transluce": 5314,
      "Paro": 5315,
      "parasol": 5316,
      "pressing": 5317,
      "ostar": 5318,
      "Despica": 5319,
      "Soak": 5320,
      "onda": 5321,
      "ondage": 5322,
      "stroke": 5323,
      "Sundress": 5324,
      "Sunbur": 5325,
      "TAKAN": 5326,
      "Coast": 5327,
      "Godzi": 5328,
      "Kaibu": 5329,
      "Quis_ut": 5330,
      "Research": 5331,
      "small": 5332,
      "smug": 5333,
      "Cheeks": 5334,
      "Cheekspun": 5335,
      "Bonding": 5336,
      "TUDI": 5337,
      "Hyotto": 5338,
      "Hyakki": 5339,
      "entory": 5340,
      "garbage": 5341,
      "posing": 5342,
      "humidification": 5343,
      "Akiizumi": 5344,
      "Cumshot": 5345,
      "Jojo": 5346,
      "ggle": 5347,
      "juice": 5348,
      "sleeping": 5349,
      "Pixelart": 5350,
      "Grand": 5351,
      "III": 5352,
      "Kobayashi": 5353,
      "Paipai": 5354,
      "Paiety": 5355,
      "Veritas": 5356,
      "Vertical": 5357,
      "lines": 5358,
      "pubic": 5359,
      "sucked": 5360,
      "Gamers": 5361,
      "Personality": 5362,
      "avy": 5363,
      "duel": 5364,
      "required": 5365,
      "Children": 5366,
      "Roboarm": 5367,
      "Whispering": 5368,
      "Antique": 5369,
      "CLIPS": 5370,
      "Gorilla": 5371,
      "Indirect": 5372,
      "MCMT": 5373,
      "OPAINT": 5374,
      "Please": 5375,
      "Rocket": 5376,
      "Shame": 5377,
      "Yasumori": 5378,
      "halo": 5379,
      "iyin": 5380,
      "makes": 5381,
      "operator": 5382,
      "plum": 5383,
      "pigtail": 5384,
      "replaced": 5385,
      "stretch": 5386,
      "Mabinogion": 5387,
      "Onii": 5388,
      "Prison": 5389,
      "Tsukatsukirio": 5390,
      "transfer": 5391,
      "explanation": 5392,
      "snowman": 5393,
      "troublesome": 5394,
      "35p": 5395,
      "3rd": 5396,
      "AHIHOS": 5397,
      "Binamaki": 5398,
      "Break": 5399,
      "Candle": 5400,
      "Camera": 5401,
      "Cardigan": 5402,
      "Drooning": 5403,
      "Drawers": 5404,
      "Emergency": 5405,
      "Evolutionary": 5406,
      "Faust": 5407,
      "Fraud": 5408,
      "Feltia": 5409,
      "Gourmet": 5410,
      "HINO": 5411,
      "Hetero": 5412,
      "Hollowitch": 5413,
      "Immergination": 5414,
      "Kamen": 5415,
      "Nemgaki": 5416,
      "Overalls": 5417,
      "Pseudo": 5418,
      "Portio": 5419,
      "Paleo": 5420,
      "Precure": 5421,
      "Someone": 5422,
      "Tennis": 5423,
      "Ukiwa": 5424,
      "Vacuum": 5425,
      "Walnut": 5426,
      "Yagyo": 5427,
      "ZENRES": 5428,
      "ZONE": 5429,
      "_deus": 5430,
      "darkness": 5431,
      "gangbang": 5432,
      "liquid": 5433,
      "mouthing": 5434,
      "married": 5435,
      "while": 5436,
      "Arousing": 5437,
      "erotic": 5438,
      "arches": 5439,
      "restraint": 5440,
      "Yueliyin": 5441,
      "Asunaichinose": 5442,
      "Album": 5443,
      "charming": 5444,
      "Reindeer": 5445,
      "cheongsam": 5446,
      "Gramaton": 5447,
      "heroines": 5448,
      "Disciplinary": 5449,
      "Gehenasiromop": 5450,
      "climaxes": 5451,
      "footprints": 5452,
      "headphones": 5453,
      "Interesting": 5454,
      "Nekukzukahi": 5455,
      "Translucent": 5456,
      "Despicable": 5457,
      "Sunburn": 5458,
      "TAKANAHIHOS": 5459,
      "Godzilla": 5460,
      "Quis_ut_deus": 5461,
      "TUDIOPAINT": 5462,
      "Hyottoko": 5463,
      "CLIPSTUDIOPAINT": 5464,
      "TAKANAHIHOSHINO": 5465,
      "08": 5466,
      "0th": 5467,
      "1p": 5468,
      "2nd": 5469,
      "39": 5470,
      "4p": 5471,
      "4000": 5472,
      "AS": 5473,
      "At": 5474,
      "Au": 5475,
      "Air": 5476,
      "Ama": 5477,
      "Amy": 5478,
      "Aid": 5479,
      "Aur": 5480,
      "Abi": 5481,
      "Ail": 5482,
      "BM": 5483,
      "BR": 5484,
      "Bar": 5485,
      "Bai": 5486,
      "Bad": 5487,
      "Bust": 5488,
      "Bru": 5489,
      "Binar": 5490,
      "Belt": 5491,
      "Brain": 5492,
      "Bour": 5493,
      "Beyond": 5494,
      "Bondage": 5495,
      "CH": 5496,
      "Cu": 5497,
      "Cock": 5498,
      "Crossed": 5499,
      "Core": 5500,
      "Camp": 5501,
      "CON": 5502,
      "Cove": 5503,
      "CBR": 5504,
      "Dam": 5505,
      "Dear": 5506,
      "Dri": 5507,
      "Did": 5508,
      "Duck": 5509,
      "Doro": 5510,
      "Direct": 5511,
      "Eve": 5512,
      "Eki": 5513,
      "Ero": 5514,
      "Even": 5515,
      "Every": 5516,
      "Edge": 5517,
      "Escape": 5518,
      "FF": 5519,
      "FP": 5520,
      "Fat": 5521,
      "Fort": 5522,
      "Go": 5523,
      "Gat": 5524,
      "Gear": 5525,
      "Gap": 5526,
      "Gang": 5527,
      "Ghen": 5528,
      "Gundam": 5529,
      "Hir": 5530,
      "Has": 5531,
      "Hat": 5532,
      "Hai": 5533,
      "Haz": 5534,
      "Hell": 5535,
      "How": 5536,
      "Hel": 5537,
      "Hoi": 5538,
      "Hame": 5539,
      "Home": 5540,
      "Honda": 5541,
      "ID": 5542,
      "Il": 5543,
      "Ide": 5544,
      "Ina": 5545,
      "Iwa": 5546,
      "Iofif": 5547,
      "JORI": 5548,
      "Kf": 5549,
      "Kn": 5550,
      "Kle": 5551,
      "Kno": 5552,
      "Kag": 5553,
      "Knight": 5554,
      "Kee": 5555,
      "Kitar": 5556,
      "Li": 5557,
      "Lin": 5558,
      "Live": 5559,
      "Lot": 5560,
      "Lori": 5561,
      "Land": 5562,
      "Lies": 5563,
      "Log": 5564,
      "Lore": 5565,
      "Lost": 5566,
      "Lady": 5567,
      "MM": 5568,
      "MV": 5569,
      "Men": 5570,
      "Mut": 5571,
      "Med": 5572,
      "Mash": 5573,
      "Merry": 5574,
      "Mug": 5575,
      "Meta": 5576,
      "Ny": 5577,
      "Nose": 5578,
      "Nya": 5579,
      "Ob": 5580,
      "Oil": 5581,
      "Oyama": 5582,
      "Plu": 5583,
      "Per": 5584,
      "Pen": 5585,
      "Pina": 5586,
      "Psy": 5587,
      "Pilling": 5588,
      "Picking": 5589,
      "Pearl": 5590,
      "Q100": 5591,
      "Qings": 5592,
      "RR": 5593,
      "RS": 5594,
      "Rou": 5595,
      "Ring": 5596,
      "Ret": 5597,
      "Reg": 5598,
      "Rick": 5599,
      "SF": 5600,
      "SI": 5601,
      "Sori": 5602,
      "Saz": 5603,
      "Smo": 5604,
      "Slight": 5605,
      "Soul": 5606,
      "Sloppy": 5607,
      "Tw": 5608,
      "Tam": 5609,
      "Tem": 5610,
      "Tig": 5611,
      "Tru": 5612,
      "Talk": 5613,
      "Trap": 5614,
      "Uwawa": 5615,
      "Ve": 5616,
      "Ven": 5617,
      "Viny": 5618,
      "Volleyball": 5619,
      "Vault": 5620,
      "Wor": 5621,
      "Wine": 5622,
      "Wani": 5623,
      "Washi": 5624,
      "Wearing": 5625,
      "YES": 5626,
      "Yostar": 5627,
      "Zer": 5628,
      "Zen": 5629,
      "Zet": 5630,
      "_l": 5631,
      "_ko": 5632,
      "_hair": 5633,
      "_cat": 5634,
      "aa": 5635,
      "ain": 5636,
      "atu": 5637,
      "away": 5638,
      "bt": 5639,
      "bit": 5640,
      "bad": 5641,
      "bare": 5642,
      "bitsu": 5643,
      "cor": 5644,
      "case": 5645,
      "ced": 5646,
      "cof": 5647,
      "creampie": 5648,
      "cup": 5649,
      "cool": 5650,
      "cci": 5651,
      "craw": 5652,
      "craft": 5653,
      "dru": 5654,
      "dag": 5655,
      "dden": 5656,
      "dildo": 5657,
      "dragon": 5658,
      "eal": 5659,
      "fus": 5660,
      "fen": 5661,
      "fast": 5662,
      "fine": 5663,
      "fill": 5664,
      "gust": 5665,
      "gada": 5666,
      "ghing": 5667,
      "ground": 5668,
      "hj": 5669,
      "hu": 5670,
      "hor": 5671,
      "han": 5672,
      "ior": 5673,
      "imi": 5674,
      "iart": 5675,
      "ilet": 5676,
      "ild": 5677,
      "ible": 5678,
      "ja": 5679,
      "jor": 5680,
      "jan": 5681,
      "jut": 5682,
      "ky": 5683,
      "kol": 5684,
      "kar": 5685,
      "key": 5686,
      "keye": 5687,
      "lic": 5688,
      "land": 5689,
      "lash": 5690,
      "lking": 5691,
      "law": 5692,
      "large": 5693,
      "mal": 5694,
      "mos": 5695,
      "mun": 5696,
      "must": 5697,
      "mind": 5698,
      "make": 5699,
      "mute": 5700,
      "mug": 5701,
      "moro": 5702,
      "mire": 5703,
      "muscle": 5704,
      "non": 5705,
      "now": 5706,
      "nosis": 5707,
      "ov": 5708,
      "oatu": 5709,
      "pp": 5710,
      "pers": 5711,
      "pac": 5712,
      "pon": 5713,
      "pis": 5714,
      "pack": 5715,
      "port": 5716,
      "pure": 5717,
      "ppl": 5718,
      "punch": 5719,
      "pnosis": 5720,
      "rma": 5721,
      "rba": 5722,
      "sor": 5723,
      "san": 5724,
      "son": 5725,
      "sna": 5726,
      "sail": 5727,
      "set": 5728,
      "salt": 5729,
      "sob": 5730,
      "spe": 5731,
      "sist": 5732,
      "shel": 5733,
      "soul": 5734,
      "sample": 5735,
      "tw": 5736,
      "tat": 5737,
      "tom": 5738,
      "tack": 5739,
      "tter": 5740,
      "tsuki": 5741,
      "thin": 5742,
      "talk": 5743,
      "ttty": 5744,
      "ub": 5745,
      "ugeki": 5746,
      "uba": 5747,
      "vin": 5748,
      "vor": 5749,
      "vis": 5750,
      "vot": 5751,
      "vation": 5752,
      "well": 5753,
      "ween": 5754,
      "worn": 5755,
      "wood": 5756,
      "were": 5757,
      "women": 5758,
      "wich": 5759,
      "wkeye": 5760,
      "xi": 5761,
      "year": 5762,
      "zal": 5763,
      "zun": 5764,
      "zza": 5765,
      "zhou": 5766,
      "○○": 5767,
      "お題": 5768,
      "ウカ": 5769,
      "キ部": 5770,
      "フブ": 5771,
      "ユウカ": 5772,
      "三浦": 5773,
      "上フブ": 5774,
      "丽丝": 5775,
      "予測": 5776,
      "亜衣": 5777,
      "今日": 5778,
      "公式": 5779,
      "凌辱": 5780,
      "加隈": 5781,
      "化粧": 5782,
      "原神": 5783,
      "地下": 5784,
      "天王": 5785,
      "小学生": 5786,
      "愛撫": 5787,
      "愛液": 5788,
      "战锤": 5789,
      "擬牝": 5790,
      "数絵": 5791,
      "早瀬": 5792,
      "星空": 5793,
      "漫画": 5794,
      "生日": 5795,
      "生活": 5796,
      "白上フブ": 5797,
      "腹射": 5798,
      "自演": 5799,
      "蘿莉": 5800,
      "誕生": 5801,
      "谷間": 5802,
      "電マ": 5803,
      "chin": 5804,
      "chine": 5805,
      "chipac": 5806,
      "BlueAka": 5807,
      "erina": 5808,
      "inary": 5809,
      "uses": 5810,
      "destru": 5811,
      "demic": 5812,
      "device": 5813,
      "debt": 5814,
      "defen": 5815,
      "income": 5816,
      "llip": 5817,
      "nter": 5818,
      "acry": 5819,
      "Burba": 5820,
      "1000RR": 5821,
      "argi": 5822,
      "asp": 5823,
      "ason": 5824,
      "assa": 5825,
      "orna": 5826,
      "ored": 5827,
      "orca": 5828,
      "orella": 5829,
      "anno": 5830,
      "ancer": 5831,
      "alth": 5832,
      "kill": 5833,
      "kage": 5834,
      "kajan": 5835,
      "itress": 5836,
      "itary": 5837,
      "itake": 5838,
      "beret": 5839,
      "onose": 5840,
      "onder": 5841,
      "ative": 5842,
      "atic": 5843,
      "atzer": 5844,
      "miko": 5845,
      "mise": 5846,
      "Tur": 5847,
      "YouTube": 5848,
      "ingu": 5849,
      "heter": 5850,
      "ens": 5851,
      "ended": 5852,
      "ender": 5853,
      "osion": 5854,
      "Holog": 5855,
      "Holding": 5856,
      "reet": 5857,
      "revers": 5858,
      "Hololivefanart": 5859,
      "icine": 5860,
      "kov": 5861,
      "koyaki": 5862,
      "haha": 5863,
      "uto": 5864,
      "uterus": 5865,
      "isn": 5866,
      "iss": 5867,
      "isis": 5868,
      "isible": 5869,
      "oth": 5870,
      "name": 5871,
      "Shining": 5872,
      "Shinon": 5873,
      "Blindfold": 5874,
      "azu": 5875,
      "azy": 5876,
      "azer": 5877,
      "kun": 5878,
      "kuri": 5879,
      "Mik": 5880,
      "MiYu": 5881,
      "Mikasa": 5882,
      "imulation": 5883,
      "iminal": 5884,
      "hoi": 5885,
      "hope": 5886,
      "lent": 5887,
      "leash": 5888,
      "lemon": 5889,
      "leopard": 5890,
      "rait": 5891,
      "rami": 5892,
      "omy": 5893,
      "ste": 5894,
      "sti": 5895,
      "stop": 5896,
      "stimulation": 5897,
      "gege": 5898,
      "tech": 5899,
      "amazing": 5900,
      "ow2024": 5901,
      "unless": 5902,
      "Riot": 5903,
      "aker": 5904,
      "ckings": 5905,
      "tober": 5906,
      "toon": 5907,
      "tobac": 5908,
      "toilet": 5909,
      "Shirokoter": 5910,
      "Maro": 5911,
      "Maria": 5912,
      "Marry": 5913,
      "noa": 5914,
      "them": 5915,
      "Sorry": 5916,
      "Top": 5917,
      "Theory": 5918,
      "emor": 5919,
      "Noa": 5920,
      "early": 5921,
      "eardru": 5922,
      "Mahi": 5923,
      "Mahiro": 5924,
      "Madoka": 5925,
      "Mahj": 5926,
      "Machine": 5927,
      "Maitake": 5928,
      "meat": 5929,
      "artist": 5930,
      "omiza": 5931,
      "Saoatu": 5932,
      "Tokio": 5933,
      "blazer": 5934,
      "obi": 5935,
      "obra": 5936,
      "sec": 5937,
      "Ang": 5938,
      "Ange": 5939,
      "Andro": 5940,
      "Raw": 5941,
      "Chan": 5942,
      "Changing": 5943,
      "ock17": 5944,
      "hairo": 5945,
      "Salty": 5946,
      "eling": 5947,
      "elastic": 5948,
      "adap": 5949,
      "adium": 5950,
      "adcast": 5951,
      "shirami": 5952,
      "Kurokage": 5953,
      "Sure": 5954,
      "Suzumi": 5955,
      "Sukajan": 5956,
      "termination": 5957,
      "Mikaazu": 5958,
      "chro": 5959,
      "chacle": 5960,
      "Funny": 5961,
      "Fuji": 5962,
      "Fucking": 5963,
      "Chill": 5964,
      "moe": 5965,
      "moving": 5966,
      "month": 5967,
      "riding": 5968,
      "zuki": 5969,
      "buchi": 5970,
      "Assault": 5971,
      "paw": 5972,
      "pafu": 5973,
      "Kirie": 5974,
      "Pricon": 5975,
      "Hawkeye": 5976,
      "loincloth": 5977,
      "nect": 5978,
      "saw": 5979,
      "saori": 5980,
      "Spatzer": 5981,
      "nothing": 5982,
      "Peeling": 5983,
      "Being": 5984,
      "Rikuhachimaru": 5985,
      "Crack": 5986,
      "Crane": 5987,
      "Crunch": 5988,
      "Crisis": 5989,
      "Crazy": 5990,
      "Neck": 5991,
      "rubbing": 5992,
      "Share": 5993,
      "Depress": 5994,
      "bean": 5995,
      "Sechi": 5996,
      "Separ": 5997,
      "Style": 5998,
      "Strap": 5999,
      "Street": 6000,
      "Stadium": 6001,
      "goon": 6002,
      "gogg": 6003,
      "aps": 6004,
      "Rec": 6005,
      "Retur": 6006,
      "Repent": 6007,
      "girls": 6008,
      "Hidden": 6009,
      "Hilking": 6010,
      "oil": 6011,
      "Smock": 6012,
      "Come": 6013,
      "orty": 6014,
      "byssgard": 6015,
      "verted": 6016,
      "lotion": 6017,
      "kekora": 6018,
      "Common": 6019,
      "Mochi": 6020,
      "lette": 6021,
      "Ambro": 6022,
      "Akus": 6023,
      "Tsund": 6024,
      "Tsukirio": 6025,
      "Armpitjob": 6026,
      "pee": 6027,
      "peek": 6028,
      "quiver": 6029,
      "urity": 6030,
      "nging": 6031,
      "okanaeru": 6032,
      "bizen": 6033,
      "october": 6034,
      "Usadap": 6035,
      "orization": 6036,
      "Table": 6037,
      "Takoyaki": 6038,
      "aura": 6039,
      "fee": 6040,
      "fest": 6041,
      "uman": 6042,
      "Flying": 6043,
      "inous": 6044,
      "sweets": 6045,
      "scene": 6046,
      "space": 6047,
      "splash": 6048,
      "sporty": 6049,
      "tract": 6050,
      "Gura": 6051,
      "pleasure": 6052,
      "Subarudo": 6053,
      "Handgun": 6054,
      "Tower": 6055,
      "pizza": 6056,
      "Saya": 6057,
      "ather": 6058,
      "Trash": 6059,
      "chewy": 6060,
      "Kiba": 6061,
      "Kivot": 6062,
      "forte": 6063,
      "force": 6064,
      "Inside": 6065,
      "Inato": 6066,
      "composition": 6067,
      "commun": 6068,
      "Grappl": 6069,
      "Slim": 6070,
      "order": 6071,
      "Clear": 6072,
      "Cleavage": 6073,
      "Mikoto": 6074,
      "Kuroko": 6075,
      "Kuzun": 6076,
      "Kuchipac": 6077,
      "Masami": 6078,
      "harness": 6079,
      "Lollip": 6080,
      "Ayano": 6081,
      "Q101": 6082,
      "Mykol": 6083,
      "Twintails": 6084,
      "Glans": 6085,
      "Glow2024": 6086,
      "Glock17": 6087,
      "Wetting": 6088,
      "Akai": 6089,
      "Akahairo": 6090,
      "hands": 6091,
      "handsome": 6092,
      "Realforce": 6093,
      "Gegege": 6094,
      "Tank": 6095,
      "Motorization": 6096,
      "Hearts": 6097,
      "NewYear": 6098,
      "Thrust": 6099,
      "opin": 6100,
      "Snowing": 6101,
      "paste": 6102,
      "Reika": 6103,
      "hole": 6104,
      "holoctober": 6105,
      "apply": 6106,
      "Sense": 6107,
      "glimp": 6108,
      "class": 6109,
      "clitor": 6110,
      "treme": 6111,
      "prettty": 6112,
      "servation": 6113,
      "Pole": 6114,
      "pend": 6115,
      "ctor": 6116,
      "_abyssgard": 6117,
      "gnan": 6118,
      "slur": 6119,
      "Valentine2025": 6120,
      "pixivfall": 6121,
      "pixivGlow2024": 6122,
      "Heavy": 6123,
      "under5000users": 6124,
      "ITCH": 6125,
      "ffed": 6126,
      "procre": 6127,
      "promise": 6128,
      "kissed": 6129,
      "Misaka": 6130,
      "Ballet": 6131,
      "police": 6132,
      "Ninomaeina": 6133,
      "Yakuko": 6134,
      "Floating": 6135,
      "Pandemic": 6136,
      "book": 6137,
      "cowgirl": 6138,
      "Certain": 6139,
      "shape": 6140,
      "shaving": 6141,
      "nthal": 6142,
      "Chinkari": 6143,
      "slutty": 6144,
      "rich": 6145,
      "Ribbon": 6146,
      "points": 6147,
      "catheter": 6148,
      "Arms": 6149,
      "insert": 6150,
      "collapse": 6151,
      "puts": 6152,
      "HoloJustice": 6153,
      "Strong": 6154,
      "Unrequ": 6155,
      "Unusual": 6156,
      "Waitress": 6157,
      "Wabizen": 6158,
      "silent": 6159,
      "keban": 6160,
      "Expl": 6161,
      "Example": 6162,
      "Extreme": 6163,
      "Lele": 6164,
      "League": 6165,
      "Mechacle": 6166,
      "Rosenthal": 6167,
      "distance": 6168,
      "pany": 6169,
      "worry": 6170,
      "Poorness": 6171,
      "favor": 6172,
      "struggle": 6173,
      "Headset": 6174,
      "Skin": 6175,
      "balls": 6176,
      "ballerina": 6177,
      "schoolgirl": 6178,
      "NerissaRavencroft": 6179,
      "Megas": 6180,
      "surround": 6181,
      "Advent": 6182,
      "prank": 6183,
      "Condom": 6184,
      "Confus": 6185,
      "Connect": 6186,
      "ement": 6187,
      "Lucci": 6188,
      "Unders": 6189,
      "bald": 6190,
      "choice": 6191,
      "chopa": 6192,
      "stutter": 6193,
      "Stars": 6194,
      "Starfish": 6195,
      "3000users": 6196,
      "Feeding": 6197,
      "criminal": 6198,
      "excre": 6199,
      "overalls": 6200,
      "Opening": 6201,
      "POJORI": 6202,
      "lived": 6203,
      "paro": 6204,
      "pared": 6205,
      "Military": 6206,
      "chuckle": 6207,
      "Pekomama": 6208,
      "piercings": 6209,
      "forehead": 6210,
      "Crossover": 6211,
      "Hips": 6212,
      "Jujut": 6213,
      "Vivi": 6214,
      "Coat": 6215,
      "Gods": 6216,
      "Kaisen": 6217,
      "broadcast": 6218,
      "dgement": 6219,
      "mommy": 6220,
      "sniff": 6221,
      "ameliart": 6222,
      "Hemed": 6223,
      "Mono": 6224,
      "omenon": 6225,
      "Bride": 6226,
      "Collaps": 6227,
      "Essov": 6228,
      "Falling": 6229,
      "Hypnosis": 6230,
      "Harness": 6231,
      "Paint": 6232,
      "Painting": 6233,
      "Pafu": 6234,
      "SERS": 6235,
      "nicely": 6236,
      "squad": 6237,
      "squeeze": 6238,
      "squeal": 6239,
      "Yukiyo": 6240,
      "elafest": 6241,
      "Eye_Ey": 6242,
      "Forgotten": 6243,
      "Akive": 6244,
      "Edition": 6245,
      "Editor": 6246,
      "JoJo": 6247,
      "jump": 6248,
      "judgement": 6249,
      "slit": 6250,
      "slouch": 6251,
      "writing": 6252,
      "user10000": 6253,
      "10000users": 6254,
      "Mococo_abyssgard": 6255,
      "Invisible": 6256,
      "difference": 6257,
      "Colored": 6258,
      "Chain": 6259,
      "Chakka": 6260,
      "Drunk": 6261,
      "Grasp": 6262,
      "Kobokanaeru": 6263,
      "Mosaic": 6264,
      "bobs": 6265,
      "pull": 6266,
      "picass": 6267,
      "Blue_Akive": 6268,
      "Playable": 6269,
      "understanding": 6270,
      "Carrot": 6271,
      "Letter": 6272,
      "Personal": 6273,
      "Rolling": 6274,
      "avor": 6275,
      "cause": 6276,
      "twintails": 6277,
      "week": 6278,
      "rolling": 6279,
      "Happy_cat": 6280,
      "Kaela_ko": 6281,
      "Kakudatekar": 6282,
      "Roboko": 6283,
      "Vocaloid1000users": 6284,
      "Ayum": 6285,
      "Blurma": 6286,
      "Corna": 6287,
      "Drinking": 6288,
      "Lumination": 6289,
      "Luminous": 6290,
      "Prepared": 6291,
      "Pastelafest": 6292,
      "Slut": 6293,
      "Slutty": 6294,
      "Yoko": 6295,
      "Yoga": 6296,
      "bench": 6297,
      "disgust": 6298,
      "sandwich": 6299,
      "Sorasakihina": 6300,
      "seconds": 6301,
      "selfie": 6302,
      "Destroyer": 6303,
      "Digitalart": 6304,
      "Calvin": 6305,
      "Ending": 6306,
      "Giant": 6307,
      "Humidity": 6308,
      "Jeans": 6309,
      "Morizuki": 6310,
      "Olly": 6311,
      "Pierc": 6312,
      "Pontai": 6313,
      "Ryuugeki": 6314,
      "SWITCH": 6315,
      "Stockings": 6316,
      "Stained": 6317,
      "Whale": 6318,
      "Yakisob": 6319,
      "between": 6320,
      "below": 6321,
      "didn": 6322,
      "everyday": 6323,
      "first": 6324,
      "followers": 6325,
      "holding": 6326,
      "laughing": 6327,
      "nails": 6328,
      "phenomenon": 6329,
      "racer": 6330,
      "innerwear": 6331,
      "devilish": 6332,
      "tumn": 6333,
      "Magical": 6334,
      "Chlorella": 6335,
      "Fubumio": 6336,
      "Starry": 6337,
      "Reflective": 6338,
      "Motherly": 6339,
      "Thumb": 6340,
      "Missomiza": 6341,
      "juices": 6342,
      "Prisoners": 6343,
      "Breakfast": 6344,
      "Autumn": 6345,
      "Aurora": 6346,
      "Ailani": 6347,
      "BMW": 6348,
      "Barney": 6349,
      "Baizhou": 6350,
      "Bustier": 6351,
      "Bourma": 6352,
      "Cocktail": 6353,
      "Covered": 6354,
      "Damn": 6355,
      "Drill": 6356,
      "Doroingu": 6357,
      "Ekiben": 6358,
      "Eros": 6359,
      "Fortia": 6360,
      "Gatling": 6361,
      "Ghenna": 6362,
      "Hazard": 6363,
      "Hello": 6364,
      "Helmet": 6365,
      "Hamepis": 6366,
      "Ideal": 6367,
      "Iwabitsu": 6368,
      "Iofifty": 6369,
      "Kfpicass": 6370,
      "Knit": 6371,
      "Klein": 6372,
      "Knocking": 6373,
      "Keefe": 6374,
      "Kitaro": 6375,
      "Liesle": 6376,
      "Menu": 6377,
      "Mutzal": 6378,
      "Medicine": 6379,
      "Masher": 6380,
      "Observation": 6381,
      "Plunging": 6382,
      "Penis": 6383,
      "Pinafore": 6384,
      "Psychopa": 6385,
      "Qingsky": 6386,
      "Sorigada": 6387,
      "Sazae": 6388,
      "Smoking": 6389,
      "Slightly": 6390,
      "Tiger": 6391,
      "Uwawaako": 6392,
      "Venus": 6393,
      "Vinyl": 6394,
      "Vaulting": 6395,
      "Wanibuchi": 6396,
      "Washimi": 6397,
      "Zero": 6398,
      "Zetacry": 6399,
      "coffee": 6400,
      "crawling": 6401,
      "dagger": 6402,
      "horse": 6403,
      "large_breasts": 6404,
      "muscles": 6405,
      "portrait": 6406,
      "snake": 6407,
      "speed": 6408,
      "sisters": 6409,
      "shelter": 6410,
      "tatto": 6411,
      "think": 6412,
      "visor": 6413,
      "キ部門": 6414,
      "加隈亜衣": 6415,
      "早瀬ユウカ": 6416,
      "白上フブキ部門": 6417,
      "谷間酒": 6418,
      "defense": 6419,
      "argix": 6420,
      "assault": 6421,
      "ornament": 6422,
      "annoying": 6423,
      "althy": 6424,
      "reversal": 6425,
      "tobacco": 6426,
      "Shirokotera": 6427,
      "eardrums": 6428,
      "Mahjong": 6429,
      "Android": 6430,
      "Fujii": 6431,
      "Priconne": 6432,
      "Depressed": 6433,
      "Separate": 6434,
      "goggles": 6435,
      "Returning": 6436,
      "Ambrosian": 6437,
      "Tsundere": 6438,
      "Usadapkekora": 6439,
      "Kivotos": 6440,
      "communication": 6441,
      "Grappler": 6442,
      "Kuzunoha": 6443,
      "Kuchipacchi": 6444,
      "Lollipop": 6445,
      "Mykolas": 6446,
      "glimpse": 6447,
      "clitoris": 6448,
      "pixivfall2024": 6449,
      "procreation": 6450,
      "Unrequited": 6451,
      "Wabizenra": 6452,
      "surrounds": 6453,
      "Confused": 6454,
      "stuttered": 6455,
      "excretion": 6456,
      "Jujutsu": 6457,
      "Pafupafu": 6458,
      "Kaela_kovalskia": 6459,
      "Kakudatekarin": 6460,
      "disgusting": 6461,
      "Ryuugekisaki": 6462,
      "Yakisoba": 6463,
      "Sorigadabi": 6464,
      "Zetacrylic": 6465,
      "(?": 6466,
      "(^": 6467,
      "(◠": 6468,
      ")/": 6469,
      ")꒱": 6470,
      "03": 6471,
      "11": 6472,
      "12": 6473,
      "114": 6474,
      "22": 6475,
      "2D": 6476,
      "2d": 6477,
      "31": 6478,
      "3D": 6479,
      "30000": 6480,
      "42": 6481,
      "43": 6482,
      "44": 6483,
      "4k": 6484,
      "4th": 6485,
      "416": 6486,
      "55": 6487,
      "514": 6488,
      "6000": 6489,
      "7000": 6490,
      "87": 6491,
      "818": 6492,
      "99": 6493,
      "9000": 6494,
      "<)꒱": 6495,
      "><": 6496,
      "AB": 6497,
      "AC": 6498,
      "AM": 6499,
      "AO": 6500,
      "AR": 6501,
      "AW": 6502,
      "A_": 6503,
      "Av": 6504,
      "Aut": 6505,
      "Ack": 6506,
      "Aod": 6507,
      "Ake": 6508,
      "Asom": 6509,
      "Asc": 6510,
      "Atr": 6511,
      "Ahet": 6512,
      "Again": 6513,
      "Ahaha": 6514,
      "BF": 6515,
      "BI": 6516,
      "BU": 6517,
      "Bb": 6518,
      "Bh": 6519,
      "Bor": 6520,
      "Bal": 6521,
      "Bit": 6522,
      "Bro": 6523,
      "Bow": 6524,
      "Base": 6525,
      "Bes": 6526,
      "Boot": 6527,
      "Boi": 6528,
      "Bid": 6529,
      "Bani": 6530,
      "Box": 6531,
      "Biz": 6532,
      "Bread": 6533,
      "Bank": 6534,
      "Bite": 6535,
      "Bitch": 6536,
      "Basketball": 6537,
      "Border": 6538,
      "CG": 6539,
      "CT": 6540,
      "CV": 6541,
      "Cas": 6542,
      "Cre": 6543,
      "Clo": 6544,
      "C100": 6545,
      "Cora": 6546,
      "Cont": 6547,
      "Cure": 6548,
      "Challen": 6549,
      "Cur": 6550,
      "Cord": 6551,
      "Click": 6552,
      "COL": 6553,
      "C104": 6554,
      "Corner": 6555,
      "Caic": 6556,
      "Cable": 6557,
      "Cain": 6558,
      "DE": 6559,
      "DS": 6560,
      "Da": 6561,
      "Di": 6562,
      "Dl": 6563,
      "Dp": 6564,
      "Du": 6565,
      "Dive": 6566,
      "Dut": 6567,
      "Dot": 6568,
      "Dim": 6569,
      "Dice": 6570,
      "Dust": 6571,
      "Dod": 6572,
      "Dau": 6573,
      "Dino": 6574,
      "Dash": 6575,
      "Daw": 6576,
      "Doss": 6577,
      "EM": 6578,
      "Ee": 6579,
      "Ent": 6580,
      "Ere": 6581,
      "Est": 6582,
      "Eight": 6583,
      "Eel": 6584,
      "Eag": 6585,
      "Engl": 6586,
      "Event": 6587,
      "Egg": 6588,
      "Eternal": 6589,
      "Eimi": 6590,
      "FU": 6591,
      "FX": 6592,
      "Fi": 6593,
      "Fr": 6594,
      "Fal": 6595,
      "Fit": 6596,
      "Fai": 6597,
      "Fie": 6598,
      "Fail": 6599,
      "Form": 6600,
      "Fei": 6601,
      "Fans": 6602,
      "Fang": 6603,
      "FRA": 6604,
      "Fact": 6605,
      "Faster": 6606,
      "F2000": 6607,
      "Final": 6608,
      "Four": 6609,
      "Free": 6610,
      "Fruit": 6611,
      "Futo": 6612,
      "Favor": 6613,
      "FEM": 6614,
      "GI": 6615,
      "GP": 6616,
      "Gh": 6617,
      "Gan": 6618,
      "Ghe": 6619,
      "Gaki": 6620,
      "Garu": 6621,
      "Gag": 6622,
      "Gasha": 6623,
      "Gep": 6624,
      "Gio": 6625,
      "Grow": 6626,
      "GGK": 6627,
      "GTA": 6628,
      "Grilled": 6629,
      "G55": 6630,
      "G9000": 6631,
      "GAR": 6632,
      "HK": 6633,
      "HT": 6634,
      "Ho": 6635,
      "Her": 6636,
      "Hin": 6637,
      "Hit": 6638,
      "Hos": 6639,
      "Hom": 6640,
      "Hose": 6641,
      "Hase": 6642,
      "Hey": 6643,
      "Hul": 6644,
      "Hane": 6645,
      "Hmm": 6646,
      "Heat": 6647,
      "Here": 6648,
      "Hoo": 6649,
      "Hundred": 6650,
      "Human": 6651,
      "IP": 6652,
      "IS": 6653,
      "IW": 6654,
      "Ie": 6655,
      "Io": 6656,
      "Ill": 6657,
      "Ish": 6658,
      "Ident": 6659,
      "Ibus": 6660,
      "Icar": 6661,
      "JN": 6662,
      "JS": 6663,
      "Jin": 6664,
      "Jou": 6665,
      "Jor": 6666,
      "Jour": 6667,
      "Jaw": 6668,
      "Kor": 6669,
      "Kit": 6670,
      "Ken": 6671,
      "Kyu": 6672,
      "Kel": 6673,
      "Kya": 6674,
      "Kong": 6675,
      "Kame": 6676,
      "Kitty": 6677,
      "Kede": 6678,
      "KFP": 6679,
      "LE": 6680,
      "Lou": 6681,
      "Lon": 6682,
      "Los": 6683,
      "Lic": 6684,
      "Lis": 6685,
      "Lumi": 6686,
      "Last": 6687,
      "Lig": 6688,
      "Lick": 6689,
      "Lang": 6690,
      "Lake": 6691,
      "Liv": 6692,
      "Lord": 6693,
      "Lamp": 6694,
      "Like": 6695,
      "Life": 6696,
      "Lets": 6697,
      "Loss": 6698,
      "Large": 6699,
      "Lancer": 6700,
      "Lens": 6701,
      "Laura": 6702,
      "M0": 6703,
      "MS": 6704,
      "Mu": 6705,
      "Mus": 6706,
      "Mat": 6707,
      "M18": 6708,
      "Mai": 6709,
      "May": 6710,
      "Mand": 6711,
      "Mun": 6712,
      "Made": 6713,
      "Met": 6714,
      "Malt": 6715,
      "Must": 6716,
      "Mong": 6717,
      "Meet": 6718,
      "Matsu": 6719,
      "Mmm": 6720,
      "Male": 6721,
      "Mitsu": 6722,
      "Math": 6723,
      "M500": 6724,
      "Mira": 6725,
      "Malk": 6726,
      "Memori": 6727,
      "Mend": 6728,
      "Management": 6729,
      "Memor": 6730,
      "Na": 6731,
      "Ni": 6732,
      "Ns": 6733,
      "Nar": 6734,
      "Now": 6735,
      "Nun": 6736,
      "Naru": 6737,
      "Net": 6738,
      "Name": 6739,
      "Nend": 6740,
      "Nier": 6741,
      "Nao": 6742,
      "Niy": 6743,
      "Navy": 6744,
      "Og": 6745,
      "Ov": 6746,
      "Ona": 6747,
      "Ono": 6748,
      "Ome": 6749,
      "Onc": 6750,
      "Oshi": 6751,
      "Och": 6752,
      "OAS": 6753,
      "OFF": 6754,
      "OBI": 6755,
      "PG": 6756,
      "Pers": 6757,
      "Pir": 6758,
      "Pal": 6759,
      "Pot": 6760,
      "Pom": 6761,
      "Pow": 6762,
      "Pose": 6763,
      "Pun": 6764,
      "Pion": 6765,
      "Pad": 6766,
      "Pes": 6767,
      "Picture": 6768,
      "Piz": 6769,
      "Pitch": 6770,
      "Pend": 6771,
      "Punch": 6772,
      "PMC": 6773,
      "P08": 6774,
      "PHT": 6775,
      "Qing": 6776,
      "Que": 6777,
      "QBU": 6778,
      "Ron": 6779,
      "Ric": 6780,
      "Ray": 6781,
      "Rori": 6782,
      "Rim": 6783,
      "Rack": 6784,
      "Right": 6785,
      "Rel": 6786,
      "Rare": 6787,
      "Rema": 6788,
      "Ract": 6789,
      "Rough": 6790,
      "Runn": 6791,
      "Ross": 6792,
      "Rifle": 6793,
      "Rally": 6794,
      "RIS": 6795,
      "RPG": 6796,
      "ST": 6797,
      "SU": 6798,
      "S_": 6799,
      "Sir": 6800,
      "Ska": 6801,
      "Smi": 6802,
      "Sie": 6803,
      "Sumi": 6804,
      "Sam": 6805,
      "Set": 6806,
      "Sock": 6807,
      "Sta": 6808,
      "Slo": 6809,
      "Sne": 6810,
      "Slot": 6811,
      "Ske": 6812,
      "Stop": 6813,
      "Sales": 6814,
      "Shed": 6815,
      "S2000": 6816,
      "S1000RR": 6817,
      "Sobi": 6818,
      "SAO": 6819,
      "SGAR": 6820,
      "TZ": 6821,
      "Tar": 6822,
      "Tor": 6823,
      "Ton": 6824,
      "Tai": 6825,
      "Taz": 6826,
      "Tri": 6827,
      "Trip": 6828,
      "Tales": 6829,
      "Touch": 6830,
      "TSF": 6831,
      "Umi": 6832,
      "Ure": 6833,
      "Use": 6834,
      "USI": 6835,
      "VR": 6836,
      "Va": 6837,
      "Vi": 6838,
      "Vo": 6839,
      "Vikini": 6840,
      "Vig": 6841,
      "Violet": 6842,
      "Void": 6843,
      "V_I": 6844,
      "Wo": 6845,
      "Whi": 6846,
      "Was": 6847,
      "Wat": 6848,
      "Wander": 6849,
      "Wick": 6850,
      "Walk": 6851,
      "Walter": 6852,
      "Wrink": 6853,
      "Woo": 6854,
      "Walking": 6855,
      "Wonder": 6856,
      "WIP": 6857,
      "Xia": 6858,
      "Yin": 6859,
      "Yar": 6860,
      "Yas": 6861,
      "Yam": 6862,
      "Yayoi": 6863,
      "YOAS": 6864,
      "YSGAR": 6865,
      "Zu": 6866,
      "Zur": 6867,
      "Zhen": 6868,
      "Zeta": 6869,
      "Zhu": 6870,
      "ZTZ": 6871,
      "^)": 6872,
      "_c": 6873,
      "_i": 6874,
      "_k": 6875,
      "_v": 6876,
      "_om": 6877,
      "_To": 6878,
      "_Hina": 6879,
      "_soles": 6880,
      "_from": 6881,
      "_original": 6882,
      "_Art": 6883,
      "_gura": 6884,
      "_handle": 6885,
      "_gr": 6886,
      "_COL": 6887,
      "af": 6888,
      "achi": 6889,
      "aan": 6890,
      "awa": 6891,
      "aart": 6892,
      "aver": 6893,
      "aqu": 6894,
      "aity": 6895,
      "aff": 6896,
      "aund": 6897,
      "aela": 6898,
      "again": 6899,
      "agoon": 6900,
      "bin": 6901,
      "bar": 6902,
      "bat": 6903,
      "bori": 6904,
      "bell": 6905,
      "bam": 6906,
      "bart": 6907,
      "bust": 6908,
      "bong": 6909,
      "bone": 6910,
      "bje": 6911,
      "bright": 6912,
      "boro": 6913,
      "bike": 6914,
      "bite": 6915,
      "biting": 6916,
      "brow": 6917,
      "bond": 6918,
      "bend": 6919,
      "bition": 6920,
      "boss": 6921,
      "beyond": 6922,
      "bondage": 6923,
      "btoon": 6924,
      "cas": 6925,
      "cal": 6926,
      "cis": 6927,
      "cand": 6928,
      "cam": 6929,
      "call": 6930,
      "cart": 6931,
      "cies": 6932,
      "cei": 6933,
      "casu": 6934,
      "cata": 6935,
      "card": 6936,
      "care": 6937,
      "crus": 6938,
      "cide": 6939,
      "came": 6940,
      "ctr": 6941,
      "cass": 6942,
      "cue": 6943,
      "civ": 6944,
      "crip": 6945,
      "contro": 6946,
      "curtains": 6947,
      "cried": 6948,
      "ctum": 6949,
      "cub": 6950,
      "dy": 6951,
      "dor": 6952,
      "dation": 6953,
      "dies": 6954,
      "dans": 6955,
      "double": 6956,
      "dish": 6957,
      "dding": 6958,
      "dise": 6959,
      "died": 6960,
      "dangerous": 6961,
      "dinary": 6962,
      "dancer": 6963,
      "eer": 6964,
      "ele": 6965,
      "est": 6966,
      "ese": 6967,
      "equ": 6968,
      "ejac": 6969,
      "eze": 6970,
      "egao": 6971,
      "evil": 6972,
      "eague": 6973,
      "eLive": 6974,
      "flu": 6975,
      "far": 6976,
      "fal": 6977,
      "fant": 6978,
      "fight": 6979,
      "fart": 6980,
      "fei": 6981,
      "fig": 6982,
      "fil": 6983,
      "fox": 6984,
      "fissa": 6985,
      "federal": 6986,
      "gers": 6987,
      "gal": 6988,
      "gos": 6989,
      "gic": 6990,
      "gak": 6991,
      "gress": 6992,
      "gth": 6993,
      "gym": 6994,
      "gum": 6995,
      "gone": 6996,
      "gift": 6997,
      "ggu": 6998,
      "grow": 6999,
      "gree": 7000,
      "gacha": 7001,
      "gundam": 7002,
      "gather": 7003,
      "hr": 7004,
      "hko": 7005,
      "hari": 7006,
      "horn": 7007,
      "hashi": 7008,
      "hanging": 7009,
      "hui": 7010,
      "hni": 7011,
      "honda": 7012,
      "human": 7013,
      "iw": 7014,
      "ius": 7015,
      "ial": 7016,
      "ien": 7017,
      "iaka": 7018,
      "illa": 7019,
      "imic": 7020,
      "ibac": 7021,
      "ikuri": 7022,
      "iRIS": 7023,
      "jer": 7024,
      "jis": 7025,
      "jash": 7026,
      "kk": 7027,
      "ken": 7028,
      "kyu": 7029,
      "kel": 7030,
      "kino": 7031,
      "kind": 7032,
      "knight": 7033,
      "kward": 7034,
      "lay": 7035,
      "lad": 7036,
      "link": 7037,
      "laid": 7038,
      "list": 7039,
      "lkekura": 7040,
      "lier": 7041,
      "laying": 7042,
      "loss": 7043,
      "lative": 7044,
      "laund": 7045,
      "lboro": 7046,
      "m9": 7047,
      "min": 7048,
      "mol": 7049,
      "mot": 7050,
      "mose": 7051,
      "mall": 7052,
      "mina": 7053,
      "maka": 7054,
      "mba": 7055,
      "master": 7056,
      "meme": 7057,
      "match": 7058,
      "mbia": 7059,
      "nar": 7060,
      "ned": 7061,
      "nel": 7062,
      "nes": 7063,
      "natsu": 7064,
      "nia": 7065,
      "num": 7066,
      "nique": 7067,
      "oy": 7068,
      "oz": 7069,
      "ode": 7070,
      "oki": 7071,
      "oon": 7072,
      "oist": 7073,
      "oint": 7074,
      "oze": 7075,
      "o_k": 7076,
      "pin": 7077,
      "pas": 7078,
      "por": 7079,
      "pat": 7080,
      "pand": 7081,
      "pth": 7082,
      "pora": 7083,
      "poc": 7084,
      "pum": 7085,
      "pop": 7086,
      "pats": 7087,
      "pping": 7088,
      "paring": 7089,
      "place": 7090,
      "pped": 7091,
      "pult": 7092,
      "post": 7093,
      "paying": 7094,
      "punk": 7095,
      "pearl": 7096,
      "ror": 7097,
      "ral": 7098,
      "rat": 7099,
      "ris": 7100,
      "ryu": 7101,
      "rina": 7102,
      "rona": 7103,
      "rings": 7104,
      "raight": 7105,
      "rpr": 7106,
      "schi": 7107,
      "sin": 7108,
      "ski": 7109,
      "ska": 7110,
      "say": 7111,
      "smas": 7112,
      "sig": 7113,
      "said": 7114,
      "sof": 7115,
      "slight": 7116,
      "sok": 7117,
      "soc": 7118,
      "sound": 7119,
      "six": 7120,
      "sill": 7121,
      "site": 7122,
      "seller": 7123,
      "sloppy": 7124,
      "tin": 7125,
      "ters": 7126,
      "tis": 7127,
      "tori": 7128,
      "tast": 7129,
      "tation": 7130,
      "taka": 7131,
      "tche": 7132,
      "taking": 7133,
      "tank": 7134,
      "tria": 7135,
      "tco": 7136,
      "talking": 7137,
      "trolling": 7138,
      "uh": 7139,
      "uo": 7140,
      "ude": 7141,
      "uers": 7142,
      "ugh": 7143,
      "uai": 7144,
      "uny": 7145,
      "uun": 7146,
      "uple": 7147,
      "uhar": 7148,
      "ucer": 7149,
      "uctive": 7150,
      "ukus": 7151,
      "vi": 7152,
      "vr": 7153,
      "vol": 7154,
      "vie": 7155,
      "vanna": 7156,
      "vArt": 7157,
      "wd": 7158,
      "wer": 7159,
      "war": 7160,
      "wing": 7161,
      "whe": 7162,
      "wears": 7163,
      "ware": 7164,
      "word": 7165,
      "when": 7166,
      "would": 7167,
      "walk": 7168,
      "wered": 7169,
      "warm": 7170,
      "witch": 7171,
      "wson": 7172,
      "wonder": 7173,
      "xur": 7174,
      "xture": 7175,
      "xiety": 7176,
      "xual": 7177,
      "yan": 7178,
      "yong": 7179,
      "yce": 7180,
      "ybe": 7181,
      "yles": 7182,
      "yish": 7183,
      "ybara": 7184,
      "yeah": 7185,
      "ything": 7186,
      "yostar": 7187,
      "y_handle": 7188,
      "ynes": 7189,
      "zz": 7190,
      "zaki": 7191,
      "zes": 7192,
      "zipper": 7193,
      "zonose": 7194,
      "​​": 7195,
      "◠)": 7196,
      "⸝>": 7197,
      "⸝⸝>": 7198,
      "いbreasts": 7199,
      "おっ": 7200,
      "と現": 7201,
      "な気": 7202,
      "ぱいbreasts": 7203,
      "アス": 7204,
      "ヒナ": 7205,
      "不能": 7206,
      "中原": 7207,
      "二次": 7208,
      "二胡": 7209,
      "互愛撫": 7210,
      "五円": 7211,
      "伊吹": 7212,
      "体重": 7213,
      "偶像": 7214,
      "入浴": 7215,
      "別な気": 7216,
      "労働": 7217,
      "原创": 7218,
      "団子": 7219,
      "執事": 7220,
      "大橋": 7221,
      "定時": 7222,
      "実装": 7223,
      "小春": 7224,
      "小麦": 7225,
      "屁股": 7226,
      "山経": 7227,
      "崎ヒナ": 7228,
      "布団": 7229,
      "帽子": 7230,
      "幡上": 7231,
      "廃墟": 7232,
      "強盗": 7233,
      "弾痕": 7234,
      "後光": 7235,
      "心理": 7236,
      "性交": 7237,
      "想と現": 7238,
      "手刀": 7239,
      "捆绑": 7240,
      "束縛": 7241,
      "械姦": 7242,
      "榴弾": 7243,
      "模写": 7244,
      "正妻": 7245,
      "水色": 7246,
      "決戦": 7247,
      "海灘": 7248,
      "海鳥": 7249,
      "無名": 7250,
      "特別な気": 7251,
      "理想と現": 7252,
      "痴漢": 7253,
      "白下": 7254,
      "白井": 7255,
      "百合": 7256,
      "目力": 7257,
      "相互愛撫": 7258,
      "空崎ヒナ": 7259,
      "童子": 7260,
      "素股": 7261,
      "紫目": 7262,
      "美乳": 7263,
      "脳装": 7264,
      "腋窩": 7265,
      "膝裏": 7266,
      "花子": 7267,
      "藿藿": 7268,
      "観覧": 7269,
      "設定": 7270,
      "退社": 7271,
      "雨傘": 7272,
      "韓国": 7273,
      "黒子": 7274,
      "齵歯": 7275,
      "ｩｽ": 7276,
      "ｱﾋ": 7277,
      "ﾄﾞ": 7278,
      "ﾜｧ": 7279,
      "ﾞﾄﾞ": 7280,
      "👊⸝⸝>": 7281,
      "lure": 7282,
      "lunc": 7283,
      "luct": 7284,
      "lumbia": 7285,
      "lunar": 7286,
      "hima": 7287,
      "hike": 7288,
      "hiding": 7289,
      "hida": 7290,
      "hiaity": 7291,
      "hibition": 7292,
      "venth": 7293,
      "chihi": 7294,
      "chiro": 7295,
      "chira": 7296,
      "chick": 7297,
      "chihiro": 7298,
      "chibus": 7299,
      "Are": 7300,
      "Ark": 7301,
      "Arro": 7302,
      "Arle": 7303,
      "Arme": 7304,
      "Army": 7305,
      "Arobra": 7306,
      "Arrona": 7307,
      "Archibus": 7308,
      "Bluear": 7309,
      "007": 7310,
      "00SERS": 7311,
      "eri": 7312,
      "ert": 7313,
      "erve": 7314,
      "eror": 7315,
      "erang": 7316,
      "erman": 7317,
      "erys": 7318,
      "ining": 7319,
      "inue": 7320,
      "inher": 7321,
      "infin": 7322,
      "instant": 7323,
      "investigation": 7324,
      "uscrip": 7325,
      "dex": 7326,
      "deer": 7327,
      "dess": 7328,
      "dest": 7329,
      "dead": 7330,
      "development": 7331,
      "decor": 7332,
      "determination": 7333,
      "de818": 7334,
      "degree": 7335,
      "depth": 7336,
      "deyan": 7337,
      "erspe": 7338,
      "ount": 7339,
      "ouzi": 7340,
      "lle": 7341,
      "ller": 7342,
      "lloween": 7343,
      "llab": 7344,
      "llfish": 7345,
      "nto": 7346,
      "nts": 7347,
      "ntif": 7348,
      "ntacle": 7349,
      "nthiaity": 7350,
      "ache": 7351,
      "acup": 7352,
      "acles": 7353,
      "accide": 7354,
      "aceri": 7355,
      "Buy": 7356,
      "Bure": 7357,
      "Buis": 7358,
      "Bubb": 7359,
      "Build": 7360,
      "1000Us": 7361,
      "1000pen": 7362,
      "1000View": 7363,
      "1000uers": 7364,
      "could": 7365,
      "counter": 7366,
      "olded": 7367,
      "olen": 7368,
      "olog": 7369,
      "olico": 7370,
      "iry": 7371,
      "irah": 7372,
      "irei": 7373,
      "iroze": 7374,
      "ark": 7375,
      "archi": 7376,
      "armi": 7377,
      "aren": 7378,
      "arre": 7379,
      "aric": 7380,
      "arad": 7381,
      "arlet": 7382,
      "arkov": 7383,
      "ask": 7384,
      "asna": 7385,
      "asle": 7386,
      "turation": 7387,
      "tution": 7388,
      "tually": 7389,
      "orno": 7390,
      "orice": 7391,
      "orter": 7392,
      "orasu": 7393,
      "orary": 7394,
      "orted": 7395,
      "orchest": 7396,
      "oroid": 7397,
      "orcy": 7398,
      "orkel": 7399,
      "anit": 7400,
      "anut": 7401,
      "anim": 7402,
      "anet": 7403,
      "anji": 7404,
      "anniversary": 7405,
      "anitas": 7406,
      "another": 7407,
      "anwhile": 7408,
      "ancis": 7409,
      "anpas": 7410,
      "anything": 7411,
      "ald": 7412,
      "alive": 7413,
      "alice": 7414,
      "alone": 7415,
      "alized": 7416,
      "kid": 7417,
      "kick": 7418,
      "kimon": 7419,
      "kitche": 7420,
      "kayo": 7421,
      "kakudate": 7422,
      "katsuki": 7423,
      "itori": 7424,
      "itation": 7425,
      "itical": 7426,
      "itement": 7427,
      "ono": 7428,
      "onan": 7429,
      "onat": 7430,
      "onaka": 7431,
      "onato": 7432,
      "onilla": 7433,
      "ating": 7434,
      "atori": 7435,
      "atrice": 7436,
      "attack": 7437,
      "atement": 7438,
      "sue": 7439,
      "sual": 7440,
      "sump": 7441,
      "suisei": 7442,
      "suction": 7443,
      "sukatsuki": 7444,
      "might": 7445,
      "mischi": 7446,
      "mille": 7447,
      "Your": 7448,
      "Youth": 7449,
      "Youyong": 7450,
      "Tube": 7451,
      "Tuurugi": 7452,
      "road": 7453,
      "roji": 7454,
      "roaring": 7455,
      "rophone": 7456,
      "rodu": 7457,
      "YouTuber3000": 7458,
      "ghter": 7459,
      "ghua": 7460,
      "ghegao": 7461,
      "hear": 7462,
      "heat": 7463,
      "healing": 7464,
      "heeda": 7465,
      "healthy": 7466,
      "ena": 7467,
      "enem": 7468,
      "enjo": 7469,
      "encer": 7470,
      "enough": 7471,
      "osive": 7472,
      "ossi": 7473,
      "Holoc": 7474,
      "Holold": 7475,
      "Holomy": 7476,
      "18G": 7477,
      "rear": 7478,
      "real": 7479,
      "reed": 7480,
      "resc": 7481,
      "recom": 7482,
      "reside": 7483,
      "review": 7484,
      "reput": 7485,
      "really": 7486,
      "revolution": 7487,
      "repent": 7488,
      "relative": 7489,
      "reluct": 7490,
      "Hololive1000": 7491,
      "HololiveDE": 7492,
      "HololiveEngl": 7493,
      "ics": 7494,
      "iced": 7495,
      "icide": 7496,
      "icult": 7497,
      "komet": 7498,
      "kodor": 7499,
      "aided": 7500,
      "haku": 7501,
      "hame": 7502,
      "hama": 7503,
      "habit": 7504,
      "halloween": 7505,
      "ism": 7506,
      "ising": 7507,
      "isine": 7508,
      "ayer": 7509,
      "oton": 7510,
      "otion": 7511,
      "otta": 7512,
      "otside": 7513,
      "othed": 7514,
      "nant": 7515,
      "nagi": 7516,
      "navel": 7517,
      "nabori": 7518,
      "naugh": 7519,
      "orio": 7520,
      "ori_c": 7521,
      "iem": 7522,
      "iest": 7523,
      "ientif": 7524,
      "Shiina": 7525,
      "Shine": 7526,
      "Shield": 7527,
      "Shini": 7528,
      "Shimiko": 7529,
      "Shimaka": 7530,
      "Shinto": 7531,
      "yuzu": 7532,
      "yuuka": 7533,
      "yucc": 7534,
      "yunoa": 7535,
      "ssary": 7536,
      "ssity": 7537,
      "ssert": 7538,
      "Blow": 7539,
      "Blinger": 7540,
      "Blonde": 7541,
      "Blender": 7542,
      "Bliaka": 7543,
      "azeta": 7544,
      "Yuan": 7545,
      "Yube": 7546,
      "Yuex": 7547,
      "Yunoa": 7548,
      "Yukino": 7549,
      "kuro": 7550,
      "kuma": 7551,
      "kuban": 7552,
      "kurat": 7553,
      "Mizu": 7554,
      "imari": 7555,
      "imbing": 7556,
      "impre": 7557,
      "imming": 7558,
      "hoop": 7559,
      "homose": 7560,
      "leap": 7561,
      "leba": 7562,
      "ledge": 7563,
      "lewd": 7564,
      "ifrom": 7565,
      "ifier": 7566,
      "ification": 7567,
      "Asuma": 7568,
      "rak": 7569,
      "rabbit": 7570,
      "elling": 7571,
      "omo": 7572,
      "omoi": 7573,
      "omatic": 7574,
      "omerang": 7575,
      "ante": 7576,
      "antly": 7577,
      "antity": 7578,
      "sters": 7579,
      "stal": 7580,
      "stle": 7581,
      "stall": 7582,
      "state": 7583,
      "stia": 7584,
      "stare": 7585,
      "step": 7586,
      "standing": 7587,
      "stron": 7588,
      "story": 7589,
      "starting": 7590,
      "stain": 7591,
      "staff": 7592,
      "straight": 7593,
      "styles": 7594,
      "stolen": 7595,
      "statement": 7596,
      "asters": 7597,
      "astity": 7598,
      "gem": 7599,
      "geant": 7600,
      "gest": 7601,
      "geball": 7602,
      "ge_breasts": 7603,
      "teen": 7604,
      "team": 7605,
      "temp": 7606,
      "tece": 7607,
      "tempt": 7608,
      "texture": 7609,
      "102": 7610,
      "ikes": 7611,
      "sword": 7612,
      "sweaty": 7613,
      "switch": 7614,
      "swelling": 7615,
      "highheel": 7616,
      "amitsu": 7617,
      "amtsu": 7618,
      "amond": 7619,
      "amour": 7620,
      "amount": 7621,
      "owing": 7622,
      "Black_fang_465": 7623,
      "Black_l": 7624,
      "unu": 7625,
      "unne": 7626,
      "unful": 7627,
      "unifrom": 7628,
      "anagi": 7629,
      "Riona": 7630,
      "Rionato": 7631,
      "akes": 7632,
      "akanit": 7633,
      "ckle": 7634,
      "toe": 7635,
      "toy": 7636,
      "toast": 7637,
      "toothed": 7638,
      "wait": 7639,
      "wagon": 7640,
      "inians": 7641,
      "Marin": 7642,
      "Marsh": 7643,
      "Marlboro": 7644,
      "noon": 7645,
      "their": 7646,
      "theoz": 7647,
      "asei": 7648,
      "ToSchool": 7649,
      "Today": 7650,
      "Tokirio": 7651,
      "Tooth": 7652,
      "They": 7653,
      "These": 7654,
      "HoshinovArt": 7655,
      "Noes": 7656,
      "Nodoka": 7657,
      "ionary": 7658,
      "Asuna_i": 7659,
      "inaga": 7660,
      "inabe": 7661,
      "earrings": 7662,
      "arugar": 7663,
      "Mao": 7664,
      "Mature": 7665,
      "Magi": 7666,
      "Major": 7667,
      "Maxi": 7668,
      "meal": 7669,
      "mess": 7670,
      "meet": 7671,
      "mechan": 7672,
      "meaning": 7673,
      "ed_gr": 7674,
      "Kisaceri": 7675,
      "etration": 7676,
      "Ichinoseyama": 7677,
      "Acari": 7678,
      "Acher": 7679,
      "Acron": 7680,
      "Actually": 7681,
      "arts": 7682,
      "Alco": 7683,
      "Altern": 7684,
      "Always": 7685,
      "Aliss": 7686,
      "Alsok": 7687,
      "Altria": 7688,
      "Hinahina": 7689,
      "those": 7690,
      "thrust": 7691,
      "thral": 7692,
      "ateful": 7693,
      "atelier": 7694,
      "ice_Art": 7695,
      "Saint": 7696,
      "Saturation": 7697,
      "Kazuai": 7698,
      "dresses": 7699,
      "bla": 7700,
      "bli": 7701,
      "blic": 7702,
      "blond": 7703,
      "obo": 7704,
      "Saiba": 7705,
      "Saibam": 7706,
      "sea": 7707,
      "sey": 7708,
      "seem": 7709,
      "session": 7710,
      "seagull": 7711,
      "season": 7712,
      "sewing": 7713,
      "Riocei": 7714,
      "And": 7715,
      "Anub": 7716,
      "Anxiety": 7717,
      "Check": 7718,
      "Cheap": 7719,
      "Chewy": 7720,
      "Raging": 7721,
      "Ravi": 7722,
      "Chuck": 7723,
      "Chup": 7724,
      "Chron": 7725,
      "adna": 7726,
      "adjust": 7727,
      "shit": 7728,
      "shing": 7729,
      "shitty": 7730,
      "Online": 7731,
      "Suomi": 7732,
      "Sukus": 7733,
      "Sumire": 7734,
      "Supp": 7735,
      "Subje": 7736,
      "Surpr": 7737,
      "Suicide": 7738,
      "Team": 7739,
      "Tentacle": 7740,
      "ustry": 7741,
      "terror": 7742,
      "Mikaal": 7743,
      "charac": 7744,
      "cherry": 7745,
      "chup": 7746,
      "chastity": 7747,
      "Fubu": 7748,
      "Furis": 7749,
      "Fuuhar": 7750,
      "Funabori": 7751,
      "Scary": 7752,
      "Scrap": 7753,
      "Scuba": 7754,
      "Sciss": 7755,
      "Scrolling": 7756,
      "Scarlet": 7757,
      "Scientif": 7758,
      "gaping": 7759,
      "gabond": 7760,
      "Chita": 7761,
      "Chihima": 7762,
      "Chikuban": 7763,
      "tafa": 7764,
      "moi": 7765,
      "mode": 7766,
      "moon": 7767,
      "ride": 7768,
      "riors": 7769,
      "rihama": 7770,
      "door": 7771,
      "doing": 7772,
      "dodo": 7773,
      "dood": 7774,
      "doctor": 7775,
      "zure": 7776,
      "esy": 7777,
      "esocks": 7778,
      "eshad": 7779,
      "escal": 7780,
      "Lolitic": 7781,
      "Highlight": 7782,
      "Highly": 7783,
      "yoko": 7784,
      "yokuro": 7785,
      "bukkake": 7786,
      "build": 7787,
      "buckle": 7788,
      "Kayokohoi": 7789,
      "Kokuri": 7790,
      "Kokk": 7791,
      "Kohaku": 7792,
      "Koyunoa": 7793,
      "Koyokuro": 7794,
      "Karinkakudate": 7795,
      "Rainbow": 7796,
      "ign": 7797,
      "ignant": 7798,
      "ipped": 7799,
      "ippers": 7800,
      "llua": 7801,
      "Onikataka": 7802,
      "pair": 7803,
      "paper": 7804,
      "Kira": 7805,
      "rouzi": 7806,
      "Kakutatekari": 7807,
      "Pract": 7808,
      "Prenap": 7809,
      "Priest": 7810,
      "you_To": 7811,
      "Hahaha": 7812,
      "loop": 7813,
      "lovers": 7814,
      "Swing": 7815,
      "Swimming": 7816,
      "need": 7817,
      "negundam": 7818,
      "ulated": 7819,
      "save": 7820,
      "saucer": 7821,
      "Space": 7822,
      "Spats": 7823,
      "Spill": 7824,
      "Spobra": 7825,
      "mae": 7826,
      "main": 7827,
      "major": 7828,
      "magic": 7829,
      "makurat": 7830,
      "Peach": 7831,
      "Peke": 7832,
      "Pepe": 7833,
      "Peps": 7834,
      "Peek": 7835,
      "Because": 7836,
      "Beaart": 7837,
      "Beatrice": 7838,
      "Bestia": 7839,
      "Catap": 7840,
      "Catrina": 7841,
      "Crona": 7842,
      "Crash": 7843,
      "Crude": 7844,
      "ofing": 7845,
      "ofister": 7846,
      "Nepora": 7847,
      "Nessity": 7848,
      "automatic": 7849,
      "ments": 7850,
      "cessary": 7851,
      "pieces": 7852,
      "rudol": 7853,
      "ruins": 7854,
      "ruggle": 7855,
      "rumba": 7856,
      "Shy": 7857,
      "Shot": 7858,
      "Shura": 7859,
      "Shatter": 7860,
      "Shwer": 7861,
      "Shouzi": 7862,
      "Shark": 7863,
      "Deck": 7864,
      "Deco": 7865,
      "Deee": 7866,
      "Detect": 7867,
      "Definitely": 7868,
      "Declaration": 7869,
      "Depend": 7870,
      "Dessert": 7871,
      "stomp": 7872,
      "Hairstyles": 7873,
      "beer": 7874,
      "beat": 7875,
      "best": 7876,
      "beam": 7877,
      "behaved": 7878,
      "because": 7879,
      "becue": 7880,
      "Sea": 7881,
      "Semi": 7882,
      "Seed": 7883,
      "Second": 7884,
      "Seoul": 7885,
      "Seventh": 7886,
      "Stand": 7887,
      "Station": 7888,
      "Stalk": 7889,
      "Static": 7890,
      "Struggle": 7891,
      "shut": 7892,
      "short": 7893,
      "share": 7894,
      "shup": 7895,
      "perame": 7896,
      "perien": 7897,
      "apon": 7898,
      "Reine": 7899,
      "Requ": 7900,
      "Reander": 7901,
      "Rebirth": 7902,
      "Return": 7903,
      "Ready": 7904,
      "Regain": 7905,
      "Reason": 7906,
      "took": 7907,
      "Party2024": 7908,
      "100followers": 7909,
      "momimi2024": 7910,
      "Shirinabe": 7911,
      "Smug": 7912,
      "braja": 7913,
      "Tsukimiya": 7914,
      "amaua": 7915,
      "blueArchive": 7916,
      "blueha": 7917,
      "bluearchi": 7918,
      "Comet": 7919,
      "Comes": 7920,
      "Complete": 7921,
      "Company": 7922,
      "Combat": 7923,
      "Comparing": 7924,
      "Comments": 7925,
      "ortant": 7926,
      "archived": 7927,
      "bye": 7928,
      "byte": 7929,
      "Seien": 7930,
      "Cheering": 7931,
      "Cheerful": 7932,
      "iable": 7933,
      "idibac": 7934,
      "Sakuramiko": 7935,
      "areola": 7936,
      "rushes": 7937,
      "kee": 7938,
      "Commemor": 7939,
      "Moaning": 7940,
      "Movie": 7941,
      "Moori_c": 7942,
      "Nonoh": 7943,
      "Amata": 7944,
      "Nightmar": 7945,
      "Nightfall": 7946,
      "Akinata": 7947,
      "Akiroze": 7948,
      "ideas": 7949,
      "fly": 7950,
      "flower": 7951,
      "flavor": 7952,
      "flakes": 7953,
      "ameau": 7954,
      "Tsuno": 7955,
      "Tsumu": 7956,
      "Sakimoe": 7957,
      "peko": 7958,
      "peace": 7959,
      "pective": 7960,
      "peanut": 7961,
      "quite": 7962,
      "Kikira": 7963,
      "ngya": 7964,
      "okini": 7965,
      "okora": 7966,
      "nda": 7967,
      "Tax": 7968,
      "Taxi": 7969,
      "Tabong": 7970,
      "Taoist": 7971,
      "Flip": 7972,
      "Flash": 7973,
      "ENHololive": 7974,
      "Kaori": 7975,
      "Kamille": 7976,
      "giving": 7977,
      "Watering": 7978,
      "RTA": 7979,
      "chance": 7980,
      "watermelon": 7981,
      "aniya": 7982,
      "ani_I": 7983,
      "bbidibac": 7984,
      "backpack": 7985,
      "Display": 7986,
      "Disposing": 7987,
      "ilization": 7988,
      "ilante": 7989,
      "scious": 7990,
      "scribb": 7991,
      "breath": 7992,
      "breaker": 7993,
      "span": 7994,
      "spat": 7995,
      "sports": 7996,
      "sparrow": 7997,
      "try": 7998,
      "trying": 7999,
      "angling": 8000,
      "Guy": 8001,
      "Guitar": 8002,
      "Guest": 8003,
      "Utration": 8004,
      "Note": 8005,
      "yourself": 8006,
      "Towel": 8007,
      "fromarkov": 8008,
      "ists": 8009,
      "istor": 8010,
      "HoshimachiGra": 8011,
      "Hoshimachisuisei": 8012,
      "Kanroji": 8013,
      "amelldans": 8014,
      "Nagsa": 8015,
      "Manga": 8016,
      "Manchira": 8017,
      "diving": 8018,
      "Tray": 8019,
      "okay": 8020,
      "okayu": 8021,
      "association": 8022,
      "cheat": 8023,
      "check": 8024,
      "chemomimi2024": 8025,
      "tsurugi": 8026,
      "odyan": 8027,
      "Kill": 8028,
      "Killua": 8029,
      "ringe": 8030,
      "Youtuber500": 8031,
      "Youtuber100users": 8032,
      "Youtuber30000": 8033,
      "HalloweenParty2024": 8034,
      "Pop": 8035,
      "Poyo": 8036,
      "Popp": 8037,
      "foreshad": 8038,
      "Invite": 8039,
      "Inverted": 8040,
      "Index": 8041,
      "Inonaka": 8042,
      "Install": 8043,
      "company": 8044,
      "rotten": 8045,
      "Railgun": 8046,
      "Gravey": 8047,
      "Justinians": 8048,
      "Mobile": 8049,
      "Saten": 8050,
      "Elbow": 8051,
      "Slime": 8052,
      "Slayer": 8053,
      "ivity": 8054,
      "ordinary": 8055,
      "winter": 8056,
      "hathes": 8057,
      "500R": 8058,
      "Serika": 8059,
      "Sergeant": 8060,
      "lyass": 8061,
      "lypro": 8062,
      "lyhana": 8063,
      "seek": 8064,
      "seeks": 8065,
      "Bandage": 8066,
      "jiu": 8067,
      "fits": 8068,
      "ogaru": 8069,
      "ogtafa": 8070,
      "Mikochi": 8071,
      "Kurihama": 8072,
      "days": 8073,
      "Masasa": 8074,
      "Masarugar": 8075,
      "Michari": 8076,
      "Microuzi": 8077,
      "Cheerleading": 8078,
      "Centr": 8079,
      "Center": 8080,
      "Generation": 8081,
      "Pinkhair": 8082,
      "Snack": 8083,
      "Snorkel": 8084,
      "cleaning": 8085,
      "syringe": 8086,
      "arrail": 8087,
      "harsh": 8088,
      "Ayatori": 8089,
      "Ayamtsu": 8090,
      "manuscrip": 8091,
      "Yoshida": 8092,
      "meira": 8093,
      "Nekomataokayu": 8094,
      "Hikaru": 8095,
      "mond": 8096,
      "money": 8097,
      "monster": 8098,
      "monkey": 8099,
      "Akupeko": 8100,
      "Minatoaqu": 8101,
      "AmiAmi": 8102,
      "Akao": 8103,
      "Akawhere": 8104,
      "teddy": 8105,
      "Hokkai": 8106,
      "baerys": 8107,
      "Anya": 8108,
      "Anyatelier": 8109,
      "Squadron": 8110,
      "Gess": 8111,
      "Geese": 8112,
      "Tanlines": 8113,
      "eaten": 8114,
      "intimi": 8115,
      "Those": 8116,
      "Thunder": 8117,
      "oping": 8118,
      "oplay": 8119,
      "sides": 8120,
      "ishment": 8121,
      "Snowboard": 8122,
      "Snowflakes": 8123,
      "Lapd": 8124,
      "Lapclo": 8125,
      "promotion": 8126,
      "Kakamichihiro": 8127,
      "holes": 8128,
      "holster": 8129,
      "holomy": 8130,
      "hologtafa": 8131,
      "petting": 8132,
      "Chestless": 8133,
      "Ruage": 8134,
      "Ruda": 8135,
      "Ruins": 8136,
      "Rurudol": 8137,
      "bodygu": 8138,
      "bodybuild": 8139,
      "sumidori": 8140,
      "Afternoon": 8141,
      "convenience": 8142,
      "convers": 8143,
      "confir": 8144,
      "conscious": 8145,
      "painful": 8146,
      "Senior": 8147,
      "Sensor": 8148,
      "glad": 8149,
      "glamour": 8150,
      "Ravecraft": 8151,
      "cloud": 8152,
      "tree": 8153,
      "treat": 8154,
      "Ravencraft": 8155,
      "Overworn": 8156,
      "Overkill": 8157,
      "preten": 8158,
      "prefer": 8159,
      "pregnan": 8160,
      "server": 8161,
      "Brim": 8162,
      "Braided": 8163,
      "Polynes": 8164,
      "guys": 8165,
      "ketsu": 8166,
      "Galmop": 8167,
      "penetration": 8168,
      "Konata": 8169,
      "silfu": 8170,
      "silencer": 8171,
      "Hotel": 8172,
      "Hotvr": 8173,
      "impossi": 8174,
      "important": 8175,
      "Warriors": 8176,
      "Bigboss": 8177,
      "Bigyuzu": 8178,
      "headache": 8179,
      "Ninja": 8180,
      "Ninpoc": 8181,
      "eklyhana": 8182,
      "latex": 8183,
      "pixivvalentine": 8184,
      "Hehe": 8185,
      "Heine": 8186,
      "Healthy": 8187,
      "Wiiu": 8188,
      "Wiihina": 8189,
      "Bodycon": 8190,
      "Hambur": 8191
    },
    "merges": [
      [
        "l",
        "u"
      ],
      [
        "h",
        "i"
      ],
      [
        "v",
        "e"
      ],
      [
        "c",
        "hi"
      ],
      [
        "A",
        "r"
      ],
      [
        "lu",
        "e"
      ],
      [
        "chi",
        "ve"
      ],
      [
        "B",
        "lue"
      ],
      [
        "Ar",
        "chive"
      ],
      [
        "0",
        "0"
      ],
      [
        "e",
        "r"
      ],
      [
        "i",
        "n"
      ],
      [
        "u",
        "s"
      ],
      [
        "d",
        "e"
      ],
      [
        "er",
        "s"
      ],
      [
        "us",
        "ers"
      ],
      [
        "00",
        "0"
      ],
      [
        "in",
        "c"
      ],
      [
        "de",
        "d"
      ],
      [
        "lu",
        "ded"
      ],
      [
        "inc",
        "luded"
      ],
      [
        "o",
        "u"
      ],
      [
        "Blue",
        "Archive"
      ],
      [
        "l",
        "l"
      ],
      [
        "n",
        "t"
      ],
      [
        "a",
        "c"
      ],
      [
        "B",
        "u"
      ],
      [
        "1",
        "000"
      ],
      [
        "Archive",
        "s"
      ],
      [
        "Bu",
        "ll"
      ],
      [
        "c",
        "ou"
      ],
      [
        "cou",
        "nt"
      ],
      [
        "ac",
        "count"
      ],
      [
        "o",
        "l"
      ],
      [
        "i",
        "r"
      ],
      [
        "a",
        "r"
      ],
      [
        "a",
        "s"
      ],
      [
        "t",
        "u"
      ],
      [
        "o",
        "r"
      ],
      [
        "a",
        "n"
      ],
      [
        "a",
        "l"
      ],
      [
        "k",
        "i"
      ],
      [
        "k",
        "a"
      ],
      [
        "i",
        "t"
      ],
      [
        "b",
        "er"
      ],
      [
        "o",
        "n"
      ],
      [
        "a",
        "t"
      ],
      [
        "s",
        "u"
      ],
      [
        "m",
        "i"
      ],
      [
        "Y",
        "ou"
      ],
      [
        "V",
        "ir"
      ],
      [
        "tu",
        "al"
      ],
      [
        "Vir",
        "tual"
      ],
      [
        "T",
        "u"
      ],
      [
        "r",
        "o"
      ],
      [
        "You",
        "Tu"
      ],
      [
        "YouTu",
        "ber"
      ],
      [
        "in",
        "g"
      ],
      [
        "の",
        "子"
      ],
      [
        "g",
        "h"
      ],
      [
        "h",
        "e"
      ],
      [
        "i",
        "ve"
      ],
      [
        "e",
        "n"
      ],
      [
        "o",
        "s"
      ],
      [
        "H",
        "ol"
      ],
      [
        "1",
        "8"
      ],
      [
        "r",
        "e"
      ],
      [
        "5",
        "000"
      ],
      [
        "ol",
        "ive"
      ],
      [
        "Hol",
        "olive"
      ],
      [
        "i",
        "c"
      ],
      [
        "k",
        "o"
      ],
      [
        "a",
        "i"
      ],
      [
        "h",
        "a"
      ],
      [
        "u",
        "t"
      ],
      [
        "i",
        "s"
      ],
      [
        "a",
        "y"
      ],
      [
        "o",
        "t"
      ],
      [
        "n",
        "a"
      ],
      [
        "or",
        "i"
      ],
      [
        "a",
        "ki"
      ],
      [
        "i",
        "e"
      ],
      [
        "S",
        "hi"
      ],
      [
        "y",
        "u"
      ],
      [
        "s",
        "s"
      ],
      [
        "B",
        "l"
      ],
      [
        "a",
        "z"
      ],
      [
        "i",
        "gh"
      ],
      [
        "Y",
        "u"
      ],
      [
        "k",
        "u"
      ],
      [
        "M",
        "i"
      ],
      [
        "n",
        "y"
      ],
      [
        "ir",
        "l"
      ],
      [
        "i",
        "m"
      ],
      [
        "h",
        "o"
      ],
      [
        "u",
        "mi"
      ],
      [
        "n",
        "ny"
      ],
      [
        "l",
        "e"
      ],
      [
        "Bu",
        "nny"
      ],
      [
        "i",
        "f"
      ],
      [
        "A",
        "su"
      ],
      [
        "r",
        "a"
      ],
      [
        "an",
        "d"
      ],
      [
        "e",
        "ll"
      ],
      [
        "o",
        "m"
      ],
      [
        "a",
        "nt"
      ],
      [
        "G",
        "irl"
      ],
      [
        "s",
        "t"
      ],
      [
        "ac",
        "k"
      ],
      [
        "os",
        "hi"
      ],
      [
        "as",
        "t"
      ],
      [
        "t",
        "it"
      ],
      [
        "g",
        "e"
      ],
      [
        "t",
        "e"
      ],
      [
        "1",
        "0"
      ],
      [
        "igh",
        "t"
      ],
      [
        "tit",
        "s"
      ],
      [
        "H",
        "oshi"
      ],
      [
        "i",
        "k"
      ],
      [
        "s",
        "w"
      ],
      [
        "hi",
        "gh"
      ],
      [
        "tu",
        "ber"
      ],
      [
        "a",
        "m"
      ],
      [
        "su",
        "it"
      ],
      [
        "o",
        "w"
      ],
      [
        "high",
        "s"
      ],
      [
        "im",
        "suit"
      ],
      [
        "Bl",
        "ack"
      ],
      [
        "os",
        "e"
      ],
      [
        "u",
        "n"
      ],
      [
        "Yu",
        "ka"
      ],
      [
        "as",
        "umi"
      ],
      [
        "V",
        "tuber"
      ],
      [
        "sw",
        "imsuit"
      ],
      [
        "an",
        "a"
      ],
      [
        "b",
        "ut"
      ],
      [
        "R",
        "i"
      ],
      [
        "ell",
        "y"
      ],
      [
        "a",
        "k"
      ],
      [
        "c",
        "k"
      ],
      [
        "t",
        "o"
      ],
      [
        "ro",
        "ko"
      ],
      [
        "I",
        "chi"
      ],
      [
        "Shi",
        "roko"
      ],
      [
        "w",
        "a"
      ],
      [
        "in",
        "i"
      ],
      [
        "but",
        "t"
      ],
      [
        "M",
        "ar"
      ],
      [
        "n",
        "o"
      ],
      [
        "t",
        "he"
      ],
      [
        "as",
        "e"
      ],
      [
        "ik",
        "ini"
      ],
      [
        "ai",
        "l"
      ],
      [
        "H",
        "ay"
      ],
      [
        "Hay",
        "ase"
      ],
      [
        "S",
        "or"
      ],
      [
        "b",
        "ikini"
      ],
      [
        "re",
        "ss"
      ],
      [
        "T",
        "o"
      ],
      [
        "T",
        "he"
      ],
      [
        "a",
        "de"
      ],
      [
        "butt",
        "on"
      ],
      [
        "e",
        "m"
      ],
      [
        "Hoshi",
        "no"
      ],
      [
        "N",
        "o"
      ],
      [
        "i",
        "on"
      ],
      [
        "a",
        "ll"
      ],
      [
        "or",
        "m"
      ],
      [
        "Asu",
        "na"
      ],
      [
        "in",
        "a"
      ],
      [
        "if",
        "orm"
      ],
      [
        "e",
        "ar"
      ],
      [
        "H",
        "asumi"
      ],
      [
        "un",
        "iform"
      ],
      [
        "B",
        "elly"
      ],
      [
        "ar",
        "u"
      ],
      [
        "ac",
        "h"
      ],
      [
        "us",
        "a"
      ],
      [
        "M",
        "a"
      ],
      [
        "m",
        "e"
      ],
      [
        "e",
        "d"
      ],
      [
        "K",
        "is"
      ],
      [
        "n",
        "ose"
      ],
      [
        "e",
        "t"
      ],
      [
        "Ichi",
        "nose"
      ],
      [
        "hi",
        "te"
      ],
      [
        "K",
        "ot"
      ],
      [
        "A",
        "c"
      ],
      [
        "W",
        "hite"
      ],
      [
        "P",
        "ant"
      ],
      [
        "Kot",
        "ori"
      ],
      [
        "Kis",
        "aki"
      ],
      [
        "u",
        "ro"
      ],
      [
        "ar",
        "t"
      ],
      [
        "Mar",
        "ie"
      ],
      [
        "n",
        "c"
      ],
      [
        "o",
        "mi"
      ],
      [
        "A",
        "l"
      ],
      [
        "H",
        "ina"
      ],
      [
        "m",
        "p"
      ],
      [
        "t",
        "h"
      ],
      [
        "at",
        "e"
      ],
      [
        "at",
        "ion"
      ],
      [
        "a",
        "h"
      ],
      [
        "ic",
        "e"
      ],
      [
        "S",
        "a"
      ],
      [
        "az",
        "aki"
      ],
      [
        "Sor",
        "azaki"
      ],
      [
        "To",
        "ki"
      ],
      [
        "K",
        "az"
      ],
      [
        "No",
        "ah"
      ],
      [
        "d",
        "ress"
      ],
      [
        "b",
        "l"
      ],
      [
        "al",
        "t"
      ],
      [
        "Kotori",
        "yu"
      ],
      [
        "o",
        "b"
      ],
      [
        "E",
        "nc"
      ],
      [
        "nt",
        "ing"
      ],
      [
        "ha",
        "nting"
      ],
      [
        "Enc",
        "hanting"
      ],
      [
        "S",
        "ai"
      ],
      [
        "s",
        "e"
      ],
      [
        "I",
        "ro"
      ],
      [
        "y",
        "m"
      ],
      [
        "Asu",
        "ka"
      ],
      [
        "Ri",
        "o"
      ],
      [
        "A",
        "n"
      ],
      [
        "C",
        "he"
      ],
      [
        "R",
        "a"
      ],
      [
        "ast",
        "ic"
      ],
      [
        "n",
        "astic"
      ],
      [
        "ym",
        "nastic"
      ],
      [
        "ymnastic",
        "s"
      ],
      [
        "C",
        "h"
      ],
      [
        "o",
        "ck"
      ],
      [
        "ha",
        "ir"
      ],
      [
        "C",
        "ho"
      ],
      [
        "S",
        "alt"
      ],
      [
        "ight",
        "s"
      ],
      [
        "e",
        "l"
      ],
      [
        "ge",
        "ki"
      ],
      [
        "Cho",
        "geki"
      ],
      [
        "S",
        "and"
      ],
      [
        "a",
        "d"
      ],
      [
        "s",
        "hi"
      ],
      [
        "O",
        "n"
      ],
      [
        "T",
        "highs"
      ],
      [
        "t",
        "ights"
      ],
      [
        "K",
        "uro"
      ],
      [
        "ie",
        "s"
      ],
      [
        "S",
        "u"
      ],
      [
        "T",
        "e"
      ],
      [
        "t",
        "highs"
      ],
      [
        "a",
        "ka"
      ],
      [
        "us",
        "t"
      ],
      [
        "Kaz",
        "usa"
      ],
      [
        "t",
        "er"
      ],
      [
        "re",
        "ast"
      ],
      [
        "Hololive",
        "en"
      ],
      [
        "ay",
        "o"
      ],
      [
        "Mi",
        "ka"
      ],
      [
        "e",
        "y"
      ],
      [
        "c",
        "h"
      ],
      [
        "su",
        "ki"
      ],
      [
        "F",
        "u"
      ],
      [
        "L",
        "ol"
      ],
      [
        "少",
        "女"
      ],
      [
        "T",
        "ail"
      ],
      [
        "e",
        "i"
      ],
      [
        "an",
        "na"
      ],
      [
        "ach",
        "er"
      ],
      [
        "Iro",
        "ku"
      ],
      [
        "Te",
        "acher"
      ],
      [
        "S",
        "c"
      ],
      [
        "g",
        "a"
      ],
      [
        "Pant",
        "ies"
      ],
      [
        "C",
        "hi"
      ],
      [
        "ol",
        "f"
      ],
      [
        "t",
        "a"
      ],
      [
        "W",
        "olf"
      ],
      [
        "m",
        "o"
      ],
      [
        "y",
        "a"
      ],
      [
        "r",
        "i"
      ],
      [
        "d",
        "o"
      ],
      [
        "Sai",
        "en"
      ],
      [
        "in",
        "at"
      ],
      [
        "reast",
        "s"
      ],
      [
        "z",
        "an"
      ],
      [
        "An",
        "zan"
      ],
      [
        "z",
        "u"
      ],
      [
        "e",
        "s"
      ],
      [
        "m",
        "as"
      ],
      [
        "Lol",
        "it"
      ],
      [
        "H",
        "igh"
      ],
      [
        "y",
        "o"
      ],
      [
        "Lolit",
        "a"
      ],
      [
        "o",
        "ust"
      ],
      [
        "Ac",
        "oust"
      ],
      [
        "Acoust",
        "ic"
      ],
      [
        "b",
        "u"
      ],
      [
        "i",
        "ka"
      ],
      [
        "H",
        "ana"
      ],
      [
        "ar",
        "i"
      ],
      [
        "K",
        "ayo"
      ],
      [
        "Kayo",
        "ko"
      ],
      [
        "K",
        "ar"
      ],
      [
        "ho",
        "ol"
      ],
      [
        "K",
        "o"
      ],
      [
        "Kar",
        "in"
      ],
      [
        "Ra",
        "in"
      ],
      [
        "H",
        "aru"
      ],
      [
        "ac",
        "e"
      ],
      [
        "G",
        "ymnastics"
      ],
      [
        "S",
        "tu"
      ],
      [
        "r",
        "ation"
      ],
      [
        "on",
        "g"
      ],
      [
        "A",
        "ss"
      ],
      [
        "i",
        "g"
      ],
      [
        "Sc",
        "hool"
      ],
      [
        "omi",
        "mi"
      ],
      [
        "in",
        "k"
      ],
      [
        "i",
        "p"
      ],
      [
        "l",
        "lu"
      ],
      [
        "On",
        "ika"
      ],
      [
        "Onika",
        "ta"
      ],
      [
        "Stu",
        "mp"
      ],
      [
        "llu",
        "st"
      ],
      [
        "Sa",
        "ori"
      ],
      [
        "all",
        "ey"
      ],
      [
        "c",
        "inat"
      ],
      [
        "f",
        "as"
      ],
      [
        "ku",
        "ra"
      ],
      [
        "cinat",
        "ing"
      ],
      [
        "fas",
        "cinating"
      ],
      [
        "p",
        "a"
      ],
      [
        "K",
        "ir"
      ],
      [
        "llust",
        "ration"
      ],
      [
        "K",
        "ak"
      ],
      [
        "r",
        "ou"
      ],
      [
        "ut",
        "ate"
      ],
      [
        "Kak",
        "utate"
      ],
      [
        "v",
        "alley"
      ],
      [
        "yu",
        "ka"
      ],
      [
        "P",
        "r"
      ],
      [
        "c",
        "anna"
      ],
      [
        "bl",
        "ade"
      ],
      [
        "R",
        "yuka"
      ],
      [
        "y",
        "ou"
      ],
      [
        "on",
        "a"
      ],
      [
        "Al",
        "ice"
      ],
      [
        "H",
        "a"
      ],
      [
        "l",
        "o"
      ],
      [
        "in",
        "e"
      ],
      [
        "S",
        "w"
      ],
      [
        "L",
        "ock"
      ],
      [
        "n",
        "e"
      ],
      [
        "as",
        "u"
      ],
      [
        "en",
        "do"
      ],
      [
        "u",
        "l"
      ],
      [
        "Bl",
        "o"
      ],
      [
        "s",
        "a"
      ],
      [
        "T",
        "endo"
      ],
      [
        "S",
        "p"
      ],
      [
        "ai",
        "d"
      ],
      [
        "e",
        "g"
      ],
      [
        "e",
        "et"
      ],
      [
        "m",
        "a"
      ],
      [
        "極",
        "上"
      ],
      [
        "Hana",
        "ko"
      ],
      [
        "n",
        "ot"
      ],
      [
        "Pr",
        "ana"
      ],
      [
        "P",
        "e"
      ],
      [
        "B",
        "e"
      ],
      [
        "j",
        "ob"
      ],
      [
        "at",
        "er"
      ],
      [
        "Rain",
        "y"
      ],
      [
        "shi",
        "p"
      ],
      [
        "as",
        "er"
      ],
      [
        "Ch",
        "aser"
      ],
      [
        "C",
        "at"
      ],
      [
        "om",
        "ers"
      ],
      [
        "ha",
        "chi"
      ],
      [
        "ku",
        "hachi"
      ],
      [
        "Ri",
        "kuhachi"
      ],
      [
        "o",
        "d"
      ],
      [
        "ear",
        "s"
      ],
      [
        "I",
        "ori"
      ],
      [
        "C",
        "r"
      ],
      [
        "m",
        "y"
      ],
      [
        "o",
        "f"
      ],
      [
        "w",
        "ant"
      ],
      [
        "b",
        "reasts"
      ],
      [
        "Blo",
        "omers"
      ],
      [
        "bu",
        "ki"
      ],
      [
        "N",
        "e"
      ],
      [
        "M",
        "aid"
      ],
      [
        "a",
        "ut"
      ],
      [
        "at",
        "a"
      ],
      [
        "ll",
        "en"
      ],
      [
        "yu",
        "ki"
      ],
      [
        "me",
        "nt"
      ],
      [
        "o",
        "ot"
      ],
      [
        "c",
        "e"
      ],
      [
        "er",
        "r"
      ],
      [
        "p",
        "ie"
      ],
      [
        "re",
        "am"
      ],
      [
        "U",
        "ra"
      ],
      [
        "Ura",
        "wa"
      ],
      [
        "h",
        "aru"
      ],
      [
        "em",
        "on"
      ],
      [
        "Ko",
        "haru"
      ],
      [
        "L",
        "eg"
      ],
      [
        "A",
        "z"
      ],
      [
        "r",
        "u"
      ],
      [
        "S",
        "h"
      ],
      [
        "D",
        "e"
      ],
      [
        "p",
        "ant"
      ],
      [
        "st",
        "om"
      ],
      [
        "Ha",
        "ir"
      ],
      [
        "D",
        "emon"
      ],
      [
        "stom",
        "ach"
      ],
      [
        "ar",
        "a"
      ],
      [
        "ar",
        "y"
      ],
      [
        "z",
        "a"
      ],
      [
        "b",
        "e"
      ],
      [
        "S",
        "e"
      ],
      [
        "S",
        "t"
      ],
      [
        "g",
        "o"
      ],
      [
        "s",
        "h"
      ],
      [
        "入",
        "り"
      ],
      [
        "p",
        "er"
      ],
      [
        "ou",
        "t"
      ],
      [
        "Ac",
        "ade"
      ],
      [
        "Be",
        "aut"
      ],
      [
        "a",
        "p"
      ],
      [
        "p",
        "ose"
      ],
      [
        "Shi",
        "mo"
      ],
      [
        "rou",
        "gh"
      ],
      [
        "R",
        "e"
      ],
      [
        "ga",
        "mi"
      ],
      [
        "Mi",
        "ya"
      ],
      [
        "Miya",
        "ko"
      ],
      [
        "to",
        "o"
      ],
      [
        "g",
        "irl"
      ],
      [
        "P",
        "art"
      ],
      [
        "Part",
        "y"
      ],
      [
        "1",
        "00"
      ],
      [
        "H",
        "i"
      ],
      [
        "j",
        "o"
      ],
      [
        "o",
        "i"
      ],
      [
        "ream",
        "pie"
      ],
      [
        "za",
        "wa"
      ],
      [
        "C",
        "reampie"
      ],
      [
        "Acade",
        "my"
      ],
      [
        "m",
        "omimi"
      ],
      [
        "ar",
        "d"
      ],
      [
        "it",
        "t"
      ],
      [
        "Shi",
        "r"
      ],
      [
        "S",
        "m"
      ],
      [
        "b",
        "ra"
      ],
      [
        "Che",
        "momimi"
      ],
      [
        "Shimo",
        "e"
      ],
      [
        "T",
        "suki"
      ],
      [
        "or",
        "a"
      ],
      [
        "ho",
        "w"
      ],
      [
        "if",
        "ul"
      ],
      [
        "th",
        "rough"
      ],
      [
        "Haru",
        "na"
      ],
      [
        "Tsuki",
        "yuki"
      ],
      [
        "Ar",
        "ona"
      ],
      [
        "am",
        "a"
      ],
      [
        "K",
        "asumi"
      ],
      [
        "b",
        "lue"
      ],
      [
        "ro",
        "m"
      ],
      [
        "C",
        "om"
      ],
      [
        "or",
        "t"
      ],
      [
        "te",
        "e"
      ],
      [
        "ar",
        "chive"
      ],
      [
        "ri",
        "en"
      ],
      [
        "b",
        "y"
      ],
      [
        "ve",
        "r"
      ],
      [
        "ut",
        "suki"
      ],
      [
        "g",
        "ymnastics"
      ],
      [
        "l",
        "ot"
      ],
      [
        "an",
        "e"
      ],
      [
        "ad",
        "a"
      ],
      [
        "S",
        "ei"
      ],
      [
        "l",
        "ight"
      ],
      [
        "Che",
        "er"
      ],
      [
        "Beaut",
        "iful"
      ],
      [
        "d",
        "ate"
      ],
      [
        "Sei",
        "a"
      ],
      [
        "Sm",
        "all"
      ],
      [
        "w",
        "ear"
      ],
      [
        "Yu",
        "rien"
      ],
      [
        "F",
        "oot"
      ],
      [
        "at",
        "su"
      ],
      [
        "is",
        "ei"
      ],
      [
        "Mi",
        "yu"
      ],
      [
        "g",
        "ai"
      ],
      [
        "i",
        "a"
      ],
      [
        "i",
        "d"
      ],
      [
        "Hoshi",
        "gai"
      ],
      [
        "Sa",
        "kura"
      ],
      [
        "Su",
        "isei"
      ],
      [
        "M",
        "om"
      ],
      [
        "ar",
        "e"
      ],
      [
        "Kuro",
        "date"
      ],
      [
        "o",
        "nt"
      ],
      [
        "r",
        "us"
      ],
      [
        "u",
        "re"
      ],
      [
        "制",
        "服"
      ],
      [
        "Ichi",
        "ka"
      ],
      [
        "u",
        "ck"
      ],
      [
        "how",
        "ing"
      ],
      [
        "k",
        "e"
      ],
      [
        "Com",
        "m"
      ],
      [
        "M",
        "o"
      ],
      [
        "it",
        "tee"
      ],
      [
        "Comm",
        "ittee"
      ],
      [
        "N",
        "on"
      ],
      [
        "le",
        "t"
      ],
      [
        "mp",
        "it"
      ],
      [
        "Ne",
        "ko"
      ],
      [
        "W",
        "aka"
      ],
      [
        "Kasumi",
        "zawa"
      ],
      [
        "A",
        "m"
      ],
      [
        "T",
        "err"
      ],
      [
        "Non",
        "omi"
      ],
      [
        "Terr",
        "or"
      ],
      [
        "N",
        "ight"
      ],
      [
        "A",
        "k"
      ],
      [
        "i",
        "de"
      ],
      [
        "not",
        "ice"
      ],
      [
        "pant",
        "s"
      ],
      [
        "6",
        "8"
      ],
      [
        "f",
        "l"
      ],
      [
        "m",
        "ata"
      ],
      [
        "ha",
        "llen"
      ],
      [
        "ell",
        "ow"
      ],
      [
        "am",
        "e"
      ],
      [
        "ow",
        "job"
      ],
      [
        "Cr",
        "at"
      ],
      [
        "let",
        "ter"
      ],
      [
        "T",
        "su"
      ],
      [
        "hallen",
        "ge"
      ],
      [
        "to",
        "p"
      ],
      [
        "D",
        "ay"
      ],
      [
        "I",
        "llustration"
      ],
      [
        "S",
        "aki"
      ],
      [
        "f",
        "ace"
      ],
      [
        "m",
        "m"
      ],
      [
        "it",
        "h"
      ],
      [
        "Mi",
        "d"
      ],
      [
        "Az",
        "usa"
      ],
      [
        "Ar",
        "mpit"
      ],
      [
        "sa",
        "ge"
      ],
      [
        "blue",
        "archive"
      ],
      [
        "i",
        "llustration"
      ],
      [
        "p",
        "e"
      ],
      [
        "Waka",
        "mo"
      ],
      [
        "H",
        "if"
      ],
      [
        "o",
        "ob"
      ],
      [
        "t",
        "ail"
      ],
      [
        "e",
        "ki"
      ],
      [
        "A",
        "by"
      ],
      [
        "a",
        "g"
      ],
      [
        "D",
        "ress"
      ],
      [
        "G",
        "ink"
      ],
      [
        "q",
        "u"
      ],
      [
        "Fu",
        "rus"
      ],
      [
        "Gink",
        "go"
      ],
      [
        "Furus",
        "eki"
      ],
      [
        "u",
        "r"
      ],
      [
        "tu",
        "re"
      ],
      [
        "mas",
        "sage"
      ],
      [
        "鼠",
        "蹊"
      ],
      [
        "Fu",
        "buki"
      ],
      [
        "K",
        "ik"
      ],
      [
        "H",
        "is"
      ],
      [
        "n",
        "g"
      ],
      [
        "Kik",
        "yo"
      ],
      [
        "I",
        "zu"
      ],
      [
        "Sor",
        "ai"
      ],
      [
        "Izu",
        "na"
      ],
      [
        "C",
        "hallenge"
      ],
      [
        "o",
        "k"
      ],
      [
        "ic",
        "a"
      ],
      [
        "wear",
        "ing"
      ],
      [
        "b",
        "i"
      ],
      [
        "o",
        "c"
      ],
      [
        "Shir",
        "asu"
      ],
      [
        "b",
        "elly"
      ],
      [
        "n",
        "d"
      ],
      [
        "oob",
        "s"
      ],
      [
        "1",
        "6"
      ],
      [
        "H",
        "im"
      ],
      [
        "N",
        "atsu"
      ],
      [
        "U",
        "s"
      ],
      [
        "lot",
        "he"
      ],
      [
        "C",
        "el"
      ],
      [
        "ori",
        "z"
      ],
      [
        "Cel",
        "ica"
      ],
      [
        "Sai",
        "wa"
      ],
      [
        "H",
        "oriz"
      ],
      [
        "T",
        "a"
      ],
      [
        "al",
        "e"
      ],
      [
        "ont",
        "al"
      ],
      [
        "Horiz",
        "ontal"
      ],
      [
        "B",
        "reasts"
      ],
      [
        "K",
        "em"
      ],
      [
        "a",
        "u"
      ],
      [
        "f",
        "e"
      ],
      [
        "m",
        "utsuki"
      ],
      [
        "u",
        "m"
      ],
      [
        "y",
        "ellow"
      ],
      [
        "and",
        "er"
      ],
      [
        "Kir",
        "yu"
      ],
      [
        "Hif",
        "umi"
      ],
      [
        "Kem",
        "omimi"
      ],
      [
        "On",
        "e"
      ],
      [
        "I",
        "t"
      ],
      [
        "s",
        "howing"
      ],
      [
        "as",
        "ha"
      ],
      [
        "Pe",
        "ace"
      ],
      [
        "Mom",
        "oi"
      ],
      [
        "His",
        "ada"
      ],
      [
        "F",
        "l"
      ],
      [
        "S",
        "ak"
      ],
      [
        "f",
        "uck"
      ],
      [
        "Kuro",
        "e"
      ],
      [
        "Sak",
        "asha"
      ],
      [
        "L",
        "ong"
      ],
      [
        "an",
        "s"
      ],
      [
        "Kuro",
        "mi"
      ],
      [
        "Mid",
        "ori"
      ],
      [
        "16",
        "th"
      ],
      [
        "N",
        "aka"
      ],
      [
        "l",
        "d"
      ],
      [
        "ing",
        "s"
      ],
      [
        "mas",
        "a"
      ],
      [
        "lo",
        "ve"
      ],
      [
        "Naka",
        "masa"
      ],
      [
        "E",
        "N"
      ],
      [
        "K",
        "a"
      ],
      [
        "e",
        "p"
      ],
      [
        "s",
        "ol"
      ],
      [
        "z",
        "umi"
      ],
      [
        "in",
        "o"
      ],
      [
        "en",
        "ce"
      ],
      [
        "Ta",
        "chi"
      ],
      [
        "K",
        "anna"
      ],
      [
        "b",
        "ana"
      ],
      [
        "Tachi",
        "bana"
      ],
      [
        "P",
        "ro"
      ],
      [
        "g",
        "i"
      ],
      [
        "sw",
        "eet"
      ],
      [
        "I",
        "zumi"
      ],
      [
        "W",
        "ater"
      ],
      [
        "it",
        "su"
      ],
      [
        "sh",
        "ot"
      ],
      [
        "R",
        "T"
      ],
      [
        "ch",
        "an"
      ],
      [
        "w",
        "ater"
      ],
      [
        "an",
        "i"
      ],
      [
        "ic",
        "k"
      ],
      [
        "ort",
        "s"
      ],
      [
        "b",
        "b"
      ],
      [
        "b",
        "ack"
      ],
      [
        "Sakura",
        "ko"
      ],
      [
        "K",
        "itsu"
      ],
      [
        "z",
        "aka"
      ],
      [
        "Bl",
        "owjob"
      ],
      [
        "Kitsu",
        "zaka"
      ],
      [
        "r",
        "t"
      ],
      [
        "is",
        "a"
      ],
      [
        "D",
        "is"
      ],
      [
        "i",
        "l"
      ],
      [
        "s",
        "om"
      ],
      [
        "s",
        "c"
      ],
      [
        "itt",
        "y"
      ],
      [
        "T",
        "itty"
      ],
      [
        "b",
        "re"
      ],
      [
        "j",
        "am"
      ],
      [
        "s",
        "p"
      ],
      [
        "pa",
        "jam"
      ],
      [
        "pajam",
        "as"
      ],
      [
        "A",
        "j"
      ],
      [
        "U",
        "i"
      ],
      [
        "k",
        "ora"
      ],
      [
        "t",
        "r"
      ],
      [
        "it",
        "ani"
      ],
      [
        "ic",
        "ture"
      ],
      [
        "Hi",
        "bi"
      ],
      [
        "Aj",
        "itani"
      ],
      [
        "Hibi",
        "ki"
      ],
      [
        "an",
        "g"
      ],
      [
        "ak",
        "ed"
      ],
      [
        "shi",
        "rt"
      ],
      [
        "G",
        "u"
      ],
      [
        "U",
        "t"
      ],
      [
        "p",
        "le"
      ],
      [
        "in",
        "d"
      ],
      [
        "ol",
        "d"
      ],
      [
        "H",
        "all"
      ],
      [
        "N",
        "ot"
      ],
      [
        "b",
        "aru"
      ],
      [
        "n",
        "ell"
      ],
      [
        "o",
        "x"
      ],
      [
        "az",
        "umi"
      ],
      [
        "you",
        "r"
      ],
      [
        "Ut",
        "azumi"
      ],
      [
        "b",
        "le"
      ],
      [
        "en",
        "ade"
[...]
